{
  "version": "1.0",
  "truncation": null,
  "padding": null,
  "added_tokens": [
    {
      "id": 0,
      "content": "<|endoftext|>",
      "single_word": false,
      "lstrip": false,
      "rstrip": false,
      "normalized": false,
      "special": true
    }
  ],
  "normalizer": null,
  "pre_tokenizer": {
    "type": "Sequence",
    "pretokenizers": [
      {
        "type": "Split",
        "pattern": {
          "Regex": "'(?:[sdmt]|ll|ve|re)| ?\\p{L}+| ?\\p{N}+| ?[^\\s\\p{L}\\p{N}]+|\\s+(?!\\S)|\\s+"
        },
        "behavior": "Isolated",
        "invert": false
      },
      {
        "type": "ByteLevel",
        "add_prefix_space": false,
        "trim_offsets": true,
        "use_regex": false
      }
    ]
  },
  "post_processor": null,
  "decoder": {
    "type": "ByteLevel",
    "add_prefix_space": true,
    "trim_offsets": true,
    "use_regex": true
  },
  "model": {
    "type": "BPE",
    "dropout": null,
    "unk_token": null,
    "continuing_subword_prefix": null,
    "end_of_word_suffix": null,
    "fuse_unk": false,
    "byte_fallback": false,
    "ignore_merges": false,
    "vocab": {
      "<|endoftext|>": 0,
      "!": 1,
      "\"": 2,
      "#": 3,
      "$": 4,
      "%": 5,
      "&": 6,
      "'": 7,
      "(": 8,
      ")": 9,
      "*": 10,
      "+": 11,
      ",": 12,
      "-": 13,
      ".": 14,
      "/": 15,
      "0": 16,
      "1": 17,
      "2": 18,
      "3": 19,
      "4": 20,
      "5": 21,
      "6": 22,
      "7": 23,
      "8": 24,
      "9": 25,
      ":": 26,
      ";": 27,
      "<": 28,
      "=": 29,
      ">": 30,
      "?": 31,
      "@": 32,
      "A": 33,
      "B": 34,
      "C": 35,
      "D": 36,
      "E": 37,
      "F": 38,
      "G": 39,
      "H": 40,
      "I": 41,
      "J": 42,
      "K": 43,
      "L": 44,
      "M": 45,
      "N": 46,
      "O": 47,
      "P": 48,
      "Q": 49,
      "R": 50,
      "S": 51,
      "T": 52,
      "U": 53,
      "V": 54,
      "W": 55,
      "X": 56,
      "Y": 57,
      "Z": 58,
      "[": 59,
      "\\": 60,
      "]": 61,
      "^": 62,
      "_": 63,
      "`": 64,
      "a": 65,
      "b": 66,
      "c": 67,
      "d": 68,
      "e": 69,
      "f": 70,
      "g": 71,
      "h": 72,
      "i": 73,
      "j": 74,
      "k": 75,
      "l": 76,
      "m": 77,
      "n": 78,
      "o": 79,
      "p": 80,
      "q": 81,
      "r": 82,
      "s": 83,
      "t": 84,
      "u": 85,
      "v": 86,
      "w": 87,
      "x": 88,
      "y": 89,
      "z": 90,
      "{": 91,
      "|": 92,
      "}": 93,
      "~": 94,
      "¡": 95,
      "¢": 96,
      "£": 97,
      "¤": 98,
      "¥": 99,
      "¦": 100,
      "§": 101,
      "¨": 102,
      "©": 103,
      "ª": 104,
      "«": 105,
      "¬": 106,
      "®": 107,
      "¯": 108,
      "°": 109,
      "±": 110,
      "²": 111,
      "³": 112,
      "´": 113,
      "µ": 114,
      "¶": 115,
      "·": 116,
      "¸": 117,
      "¹": 118,
      "º": 119,
      "»": 120,
      "¼": 121,
      "½": 122,
      "¾": 123,
      "¿": 124,
      "À": 125,
      "Á": 126,
      "Â": 127,
      "Ã": 128,
      "Ä": 129,
      "Å": 130,
      "Æ": 131,
      "Ç": 132,
      "È": 133,
      "É": 134,
      "Ê": 135,
      "Ë": 136,
      "Ì": 137,
      "Í": 138,
      "Î": 139,
      "Ï": 140,
      "Ð": 141,
      "Ñ": 142,
      "Ò": 143,
      "Ó": 144,
      "Ô": 145,
      "Õ": 146,
      "Ö": 147,
      "×": 148,
      "Ø": 149,
      "Ù": 150,
      "Ú": 151,
      "Û": 152,
      "Ü": 153,
      "Ý": 154,
      "Þ": 155,
      "ß": 156,
      "à": 157,
      "á": 158,
      "â": 159,
      "ã": 160,
      "ä": 161,
      "å": 162,
      "æ": 163,
      "ç": 164,
      "è": 165,
      "é": 166,
      "ê": 167,
      "ë": 168,
      "ì": 169,
      "í": 170,
      "î": 171,
      "ï": 172,
      "ð": 173,
      "ñ": 174,
      "ò": 175,
      "ó": 176,
      "ô": 177,
      "õ": 178,
      "ö": 179,
      "÷": 180,
      "ø": 181,
      "ù": 182,
      "ú": 183,
      "û": 184,
      "ü": 185,
      "ý": 186,
      "þ": 187,
      "ÿ": 188,
      "Ā": 189,
      "ā": 190,
      "Ă": 191,
      "ă": 192,
      "Ą": 193,
      "ą": 194,
      "Ć": 195,
      "ć": 196,
      "Ĉ": 197,
      "ĉ": 198,
      "Ċ": 199,
      "ċ": 200,
      "Č": 201,
      "č": 202,
      "Ď": 203,
      "ď": 204,
      "Đ": 205,
      "đ": 206,
      "Ē": 207,
      "ē": 208,
      "Ĕ": 209,
      "ĕ": 210,
      "Ė": 211,
      "ė": 212,
      "Ę": 213,
      "ę": 214,
      "Ě": 215,
      "ě": 216,
      "Ĝ": 217,
      "ĝ": 218,
      "Ğ": 219,
      "ğ": 220,
      "Ġ": 221,
      "ġ": 222,
      "Ģ": 223,
      "ģ": 224,
      "Ĥ": 225,
      "ĥ": 226,
      "Ħ": 227,
      "ħ": 228,
      "Ĩ": 229,
      "ĩ": 230,
      "Ī": 231,
      "ī": 232,
      "Ĭ": 233,
      "ĭ": 234,
      "Į": 235,
      "į": 236,
      "İ": 237,
      "ı": 238,
      "Ĳ": 239,
      "ĳ": 240,
      "Ĵ": 241,
      "ĵ": 242,
      "Ķ": 243,
      "ķ": 244,
      "ĸ": 245,
      "Ĺ": 246,
      "ĺ": 247,
      "Ļ": 248,
      "ļ": 249,
      "Ľ": 250,
      "ľ": 251,
      "Ŀ": 252,
      "ŀ": 253,
      "Ł": 254,
      "ł": 255,
      "Ń": 256,
      "ĠĠ": 257,
      "ĠĠĠĠ": 258,
      "ĠĠĠ": 259,
      "ĠĠĠĠĠĠĠĠ": 260,
      "se": 261,
      "in": 262,
      "re": 263,
      "on": 264,
      "ĠĠĠĠĠĠĠ": 265,
      "at": 266,
      "er": 267,
      "Ġt": 268,
      "ĊĠĠĠĠĠĠĠ": 269,
      "st": 270,
      "or": 271,
      "ĊĠĠĠĠĠĠĠĠ": 272,
      "en": 273,
      "Ġ=": 274,
      "Ġa": 275,
      "ĊĠĠĠ": 276,
      "de": 277,
      "al": 278,
      "sel": 279,
      "self": 280,
      "he": 281,
      "le": 282,
      "it": 283,
      "me": 284,
      "ar": 285,
      "Ġc": 286,
      "an": 287,
      "ion": 288,
      "Ġi": 289,
      "Ġf": 290,
      "Ġ'": 291,
      "ro": 292,
      "ĊĠĠĠĠĠĠĠĠĠĠĠ": 293,
      "ct": 294,
      "Ġp": 295,
      "Ġself": 296,
      "--": 297,
      "ce": 298,
      "Ġre": 299,
      "Ġthe": 300,
      "ur": 301,
      "ge": 302,
      "Ġs": 303,
      "Ġo": 304,
      "ut": 305,
      "Ġin": 306,
      "as": 307,
      "ing": 308,
      "Ġ\"": 309,
      "Ġn": 310,
      "mp": 311,
      "ent": 312,
      "):": 313,
      "lo": 314,
      "ue": 315,
      "ate": 316,
      "Ġw": 317,
      "ame": 318,
      "Ġb": 319,
      "li": 320,
      "',": 321,
      "ser": 322,
      "Ġe": 323,
      "Ġd": 324,
      "Ġm": 325,
      "pe": 326,
      "id": 327,
      "Ġde": 328,
      "un": 329,
      "##": 330,
      "fi": 331,
      "te": 332,
      "co": 333,
      "ĊĠĠĠĠĠĠĠĠĠĠĠĠĠĠĠĠ": 334,
      "ad": 335,
      "is": 336,
      "Ġto": 337,
      "ĊĊĠĠĠ": 338,
      "ed": 339,
      "il": 340,
      "Ġ#": 341,
      "Ġan": 342,
      "()": 343,
      "ck": 344,
      "ot": 345,
      "ul": 346,
      "ra": 347,
      "Ġ(": 348,
      "\"\"": 349,
      "ri": 350,
      "ch": 351,
      "Ġif": 352,
      "ort": 353,
      "----": 354,
      "ĊĠĠĠĠĠĠĠĠĠĠĠĠĠĠĠ": 355,
      "':": 356,
      "ss": 357,
      "Ġof": 358,
      "el": 359,
      "Ġdef": 360,
      "urn": 361,
      "get": 362,
      "Ġfor": 363,
      "turn": 364,
      "ation": 365,
      "ĠT": 366,
      "pt": 367,
      "es": 368,
      "name": 369,
      "ab": 370,
      "Ġis": 371,
      "ol": 372,
      "')": 373,
      "one": 374,
      "ver": 375,
      "up": 376,
      "val": 377,
      "Ġand": 378,
      "('": 379,
      "um": 380,
      "ode": 381,
      "ma": 382,
      "ect": 383,
      "Ġreturn": 384,
      "ho": 385,
      "ype": 386,
      "con": 387,
      "__": 388,
      "Ġst": 389,
      "ĊĊĠĠĠĠĠĠĠ": 390,
      "qu": 391,
      "di": 392,
      "ata": 393,
      "xt": 394,
      "ve": 395,
      "Ġth": 396,
      "et": 397,
      "Ġ[": 398,
      "==": 399,
      "rom": 400,
      "ter": 401,
      "sert": 402,
      "mport": 403,
      "ic": 404,
      "Ġl": 405,
      "Ġ1": 406,
      "####": 407,
      "),": 408,
      "ke": 409,
      "\",": 410,
      "ass": 411,
      "set": 412,
      "Ġh": 413,
      "est": 414,
      "Ġcon": 415,
      "ĠN": 416,
      "']": 417,
      "ap": 418,
      "ult": 419,
      "Ġas": 420,
      "Ġ\"\"\"": 421,
      "00": 422,
      "ĊĊ": 423,
      "ĠA": 424,
      "th": 425,
      "Ġu": 426,
      "vi": 427,
      "ĠS": 428,
      "Ġ{": 429,
      "ith": 430,
      "ath": 431,
      "Ġg": 432,
      "._": 433,
      "))": 434,
      "ig": 435,
      "Ġco": 436,
      "ĠĠĠĠĠĠĠĠĠĠĠĠĠĠĠĠ": 437,
      "ĠC": 438,
      "age": 439,
      "['": 440,
      "am": 441,
      "int": 442,
      "cl": 443,
      "Ġ0": 444,
      "res": 445,
      "Ġnot": 446,
      "rue": 447,
      "Ġex": 448,
      "and": 449,
      "to": 450,
      "iz": 451,
      "ime": 452,
      "ction": 453,
      "ay": 454,
      "gs": 455,
      "value": 456,
      "ĠI": 457,
      "ject": 458,
      "able": 459,
      "ist": 460,
      "end": 461,
      "eld": 462,
      "Ġbe": 463,
      "orm": 464,
      "ub": 465,
      "type": 466,
      "(\"": 467,
      "ĠĠĠĠĠ": 468,
      "all": 469,
      "--------": 470,
      "ment": 471,
      "us": 472,
      "Ġ+": 473,
      "pro": 474,
      "ption": 475,
      "ror": 476,
      "Ġimport": 477,
      "per": 478,
      "from": 479,
      "ta": 480,
      "ile": 481,
      "Ġor": 482,
      "def": 483,
      "ase": 484,
      "par": 485,
      "ĠF": 486,
      "po": 487,
      "Ġres": 488,
      "ht": 489,
      "assert": 490,
      "],": 491,
      "ite": 492,
      "Ġ2": 493,
      "ĠNone": 494,
      "mo": 495,
      "que": 496,
      "ĠP": 497,
      "Ġr": 498,
      "ĊĠĠĠĠĠĠĠĠĠĠĠĠĠĠĠĠĠĠĠ": 499,
      "tr": 500,
      "Ġ-": 501,
      "Ġ%": 502,
      "ers": 503,
      "Ġ==": 504,
      "key": 505,
      "odel": 506,
      "ren": 507,
      "ew": 508,
      "ob": 509,
      "ine": 510,
      "Ġwith": 511,
      "ance": 512,
      "list": 513,
      "Ġpro": 514,
      "Ġtest": 515,
      "ex": 516,
      "path": 517,
      "pl": 518,
      "put": 519,
      "ĉĉ": 520,
      "che": 521,
      "der": 522,
      "\")": 523,
      "Ġ:": 524,
      "Ġ_": 525,
      "our": 526,
      "ĠL": 527,
      "Re": 528,
      "log": 529,
      "file": 530,
      "ack": 531,
      "str": 532,
      "data": 533,
      "Ġy": 534,
      "form": 535,
      "ci": 536,
      "====": 537,
      "red": 538,
      "Ġme": 539,
      "art": 540,
      "out": 541,
      "fo": 542,
      "Ġse": 543,
      "alse": 544,
      "ow": 545,
      "########": 546,
      "Ġ*": 547,
      "qual": 548,
      "sion": 549,
      "op": 550,
      "quest": 551,
      "ĠD": 552,
      "ly": 553,
      "Ġal": 554,
      "='": 555,
      "\":": 556,
      "text": 557,
      "Ġthat": 558,
      "class": 559,
      "ĊĠĠĠĠĠ": 560,
      "ĠM": 561,
      "om": 562,
      "Ġon": 563,
      "ity": 564,
      "du": 565,
      "True": 566,
      "test": 567,
      "ield": 568,
      "date": 569,
      "Ġmo": 570,
      "Ġv": 571,
      "ff": 572,
      "ure": 573,
      "fig": 574,
      "app": 575,
      "ize": 576,
      "ĊĠĠĠĠĠĠĠĠĠĠĠĠĠĠĠĠĠĠĠĠĠĠĠĠ": 577,
      "ir": 578,
      "ord": 579,
      "args": 580,
      "Ġname": 581,
      "time": 582,
      "mple": 583,
      "ise": 584,
      "ag": 585,
      "Ġit": 586,
      "Er": 587,
      "ial": 588,
      "reate": 589,
      "py": 590,
      "ĠO": 591,
      "add": 592,
      "])": 593,
      "Error": 594,
      "sh": 595,
      "Ġel": 596,
      "ource": 597,
      "ang": 598,
      "sc": 599,
      "pon": 600,
      "ĊĠĠĠĠĠĠĠĠĠĠĠĠĠĠĠĠĠĠĠĠĠĠĠĠĠĠĠĠĠĠĠĠ": 601,
      "ault": 602,
      "ace": 603,
      "Ġar": 604,
      "stance": 605,
      "ext": 606,
      "ms": 607,
      "ĠE": 608,
      "In": 609,
      "ĊĠ": 610,
      "lic": 611,
      "url": 612,
      "unt": 613,
      "Ġdi": 614,
      "bo": 615,
      "Ġelse": 616,
      "Ġdata": 617,
      "Ġhe": 618,
      "ug": 619,
      "Ġstr": 620,
      "Ġassert": 621,
      "ER": 622,
      "ip": 623,
      "low": 624,
      "ĠThe": 625,
      "rib": 626,
      "rint": 627,
      "ry": 628,
      "ant": 629,
      "Ġfrom": 630,
      "Ġun": 631,
      "import": 632,
      "Ġwh": 633,
      "Equal": 634,
      "ON": 635,
      "Ġvalue": 636,
      "ĠB": 637,
      "ive": 638,
      "Ġthis": 639,
      "user": 640,
      "pre": 641,
      "ange": 642,
      "ponse": 643,
      "rent": 644,
      "01": 645,
      "Ġare": 646,
      "com": 647,
      "ust": 648,
      "ind": 649,
      "ans": 650,
      "ĠW": 651,
      "Ġat": 652,
      "Ġget": 653,
      "if": 654,
      "ork": 655,
      "atch": 656,
      "IN": 657,
      "ill": 658,
      "Ġfile": 659,
      ").": 660,
      "cess": 661,
      "roup": 662,
      "len": 663,
      "oc": 664,
      "os": 665,
      "None": 666,
      "\"\"\"": 667,
      "ory": 668,
      "im": 669,
      "model": 670,
      "code": 671,
      "sed": 672,
      "Ġwe": 673,
      "assertEqual": 674,
      "vice": 675,
      "ĠG": 676,
      "Ġx": 677,
      "Ġma": 678,
      "port": 679,
      "ave": 680,
      "und": 681,
      "act": 682,
      "Ġ`": 683,
      "Ġby": 684,
      "dex": 685,
      "ies": 686,
      "db": 687,
      "Ġch": 688,
      "Ġset": 689,
      "ary": 690,
      "lient": 691,
      "ast": 692,
      "----------------": 693,
      "ign": 694,
      "iv": 695,
      "dd": 696,
      "=\"": 697,
      "Ġra": 698,
      "Ġout": 699,
      "Ġob": 700,
      "..": 701,
      "Ġ)": 702,
      "ute": 703,
      "loc": 704,
      "Ġk": 705,
      "Ġ@": 706,
      "field": 707,
      "ĠR": 708,
      "error": 709,
      "Ġpar": 710,
      "Ġso": 711,
      "âĢ": 712,
      "Ġ('": 713,
      "ition": 714,
      "Ġ3": 715,
      "ES": 716,
      "ense": 717,
      "Ġcl": 718,
      "ĠU": 719,
      "ph": 720,
      "AT": 721,
      "ray": 722,
      "hod": 723,
      "ild": 724,
      "ĠTrue": 725,
      "tp": 726,
      "Ċĉ": 727,
      "ĊĠĠĠĠĠĠĠĠĠĠĠĠĠĠĠĠĠĠĠĠĠĠĠ": 728,
      "ted": 729,
      "ac": 730,
      "Ġj": 731,
      "ssage": 732,
      "Ġ{'": 733,
      "Ġ__": 734,
      "Ġ}": 735,
      "ĠH": 736,
      "uth": 737,
      "Ċĉĉ": 738,
      "load": 739,
      "ll": 740,
      "Ġen": 741,
      "ated": 742,
      "ty": 743,
      "read": 744,
      "vent": 745,
      "object": 746,
      "ask": 747,
      "stat": 748,
      "ber": 749,
      "are": 750,
      "cept": 751,
      "ument": 752,
      "version": 753,
      "mage": 754,
      "param": 755,
      "oo": 756,
      "ator": 757,
      "ou": 758,
      "dir": 759,
      "thod": 760,
      "ded": 761,
      "col": 762,
      "ings": 763,
      "[\"": 764,
      "fe": 765,
      "**": 766,
      "min": 767,
      "init": 768,
      "ĠFalse": 769,
      "Ġresult": 770,
      "//": 771,
      "Con": 772,
      "update": 773,
      "format": 774,
      "ĠĠĠĠĠĠ": 775,
      "EN": 776,
      "append": 777,
      "uld": 778,
      "Ġro": 779,
      "son": 780,
      "tent": 781,
      "Ġos": 782,
      "sen": 783,
      "ard": 784,
      "ĠV": 785,
      "Ġap": 786,
      "========": 787,
      "ations": 788,
      "ys": 789,
      "ener": 790,
      "Ġprint": 791,
      "Ġ>": 792,
      "Ġlist": 793,
      "valid": 794,
      "pect": 795,
      "ger": 796,
      "ml": 797,
      "info": 798,
      "Ġlen": 799,
      "ore": 800,
      "Ġcan": 801,
      "Ġli": 802,
      "count": 803,
      "'),": 804,
      "Ġtype": 805,
      "Field": 806,
      "Ġtime": 807,
      "Ġ<": 808,
      "ape": 809,
      "rect": 810,
      "Ġnp": 811,
      "Ġpre": 812,
      "ssion": 813,
      "config": 814,
      "Ġraise": 815,
      "():": 816,
      "ĠRe": 817,
      "ango": 818,
      "Ġle": 819,
      "ception": 820,
      "OR": 821,
      "Ġdo": 822,
      "False": 823,
      "Ġlog": 824,
      "jango": 825,
      "ep": 826,
      "__(": 827,
      "ST": 828,
      "instance": 829,
      "mit": 830,
      "ample": 831,
      "lock": 832,
      "AR": 833,
      "ery": 834,
      "unction": 835,
      "################": 836,
      "line": 837,
      "work": 838,
      "Ġuser": 839,
      "ens": 840,
      "cur": 841,
      "ils": 842,
      "trib": 843,
      "čĊĠĠĠĠĠĠĠ": 844,
      "abel": 845,
      "wargs": 846,
      "IT": 847,
      "dict": 848,
      "create": 849,
      "models": 850,
      "Ġkey": 851,
      "ari": 852,
      "dule": 853,
      "ĠIn": 854,
      "nect": 855,
      "tain": 856,
      "sub": 857,
      "so": 858,
      "qui": 859,
      "\"]": 860,
      "Ġwill": 861,
      "ok": 862,
      "Ġnew": 863,
      "Ġmodel": 864,
      "([": 865,
      "size": 866,
      "oin": 867,
      "Ġsho": 868,
      "mpl": 869,
      "ight": 870,
      "ud": 871,
      "Ġ4": 872,
      "ache": 873,
      "ft": 874,
      "ght": 875,
      "Ġall": 876,
      "Ġrequest": 877,
      "Ġuse": 878,
      "Test": 879,
      "ces": 880,
      "em": 881,
      "yn": 882,
      "own": 883,
      "ĊĊĠ": 884,
      "group": 885,
      "Ġpl": 886,
      "ree": 887,
      "icense": 888,
      "scri": 889,
      "node": 890,
      "Ġ{}": 891,
      "Ġcom": 892,
      "'}": 893,
      "av": 894,
      "Ġcomp": 895,
      "Ġcol": 896,
      "his": 897,
      "ink": 898,
      "Ġpo": 899,
      "rite": 900,
      "num": 901,
      "ther": 902,
      "sp": 903,
      "heck": 904,
      "main": 905,
      "Ġhas": 906,
      "request": 907,
      "Ġho": 908,
      "comp": 909,
      "we": 910,
      "Ġnum": 911,
      "ec": 912,
      "Ġser": 913,
      "ib": 914,
      "peci": 915,
      "fields": 916,
      "Ġsh": 917,
      "ifi": 918,
      "lif": 919,
      "ress": 920,
      "Ġsub": 921,
      "gth": 922,
      "SE": 923,
      "state": 924,
      "ters": 925,
      "arch": 926,
      "ull": 927,
      "use": 928,
      "for": 929,
      "ĊĊĠĠĠĠĠĠĠĠĠĠĠ": 930,
      "'],": 931,
      "no": 932,
      "index": 933,
      "word": 934,
      "gra": 935,
      "Ġexcept": 936,
      "max": 937,
      "query": 938,
      "Ġdefault": 939,
      "mand": 940,
      "''": 941,
      "ail": 942,
      "back": 943,
      "arget": 944,
      "LE": 945,
      "Ġne": 946,
      "RE": 947,
      "Ġtry": 948,
      "].": 949,
      "10": 950,
      "Ġhave": 951,
      "default": 952,
      "Ġyou": 953,
      "ptions": 954,
      "net": 955,
      "by": 956,
      "od": 957,
      "ron": 958,
      "Ġ[]": 959,
      "view": 960,
      "://": 961,
      "Ġfield": 962,
      "ĠLicense": 963,
      "item": 964,
      "Ġadd": 965,
      "Ġno": 966,
      "join": 967,
      "client": 968,
      ".__": 969,
      "ally": 970,
      "())": 971,
      "row": 972,
      "bu": 973,
      "start": 974,
      "loat": 975,
      "Ġid": 976,
      "AN": 977,
      "arg": 978,
      "Ġac": 979,
      "Ġper": 980,
      "Ġop": 981,
      "pected": 982,
      "umn": 983,
      "Ġelif": 984,
      "Ġte": 985,
      "led": 986,
      "ak": 987,
      "ID": 988,
      "Ġ**": 989,
      "ich": 990,
      "Pro": 991,
      "status": 992,
      "with": 993,
      "Ġsup": 994,
      "array": 995,
      "Ġobject": 996,
      "Type": 997,
      "St": 998,
      "lib": 999,
      "tra": 1000,
      "ĊĠĠĠĠĠĠĠĠĠ": 1001,
      "UT": 1002,
      "not": 1003,
      "thon": 1004,
      "ound": 1005,
      "right": 1006,
      "arn": 1007,
      "12": 1008,
      "AL": 1009,
      "mplate": 1010,
      "alue": 1011,
      "context": 1012,
      "mat": 1013,
      "Ġcur": 1014,
      "map": 1015,
      "ence": 1016,
      "Ġresponse": 1017,
      "ĠThis": 1018,
      "Ġ+=": 1019,
      "django": 1020,
      "run": 1021,
      "Name": 1022,
      "return": 1023,
      "Ġdis": 1024,
      "pi": 1025,
      "Ġpy": 1026,
      "api": 1027,
      "Ġpath": 1028,
      "Ex": 1029,
      "rans": 1030,
      "ĠIf": 1031,
      "Ġ5": 1032,
      "(),": 1033,
      ".\"\"\"": 1034,
      "čĊĠĠĠ": 1035,
      "do": 1036,
      "attr": 1037,
      "čĊ": 1038,
      "mail": 1039,
      "les": 1040,
      "reg": 1041,
      "Ġconfig": 1042,
      "TI": 1043,
      "response": 1044,
      "pos": 1045,
      "ake": 1046,
      "kwargs": 1047,
      "ments": 1048,
      "result": 1049,
      "sing": 1050,
      "Ġnode": 1051,
      "ual": 1052,
      "ader": 1053,
      "mon": 1054,
      "string": 1055,
      "ain": 1056,
      "ses": 1057,
      "ken": 1058,
      "'s": 1059,
      "vel": 1060,
      "mis": 1061,
      "Ġint": 1062,
      "ne": 1063,
      "try": 1064,
      "ors": 1065,
      "Ġ[],": 1066,
      "ide": 1067,
      "DE": 1068,
      "ume": 1069,
      "her": 1070,
      "lete": 1071,
      "ix": 1072,
      "iter": 1073,
      "Ġshould": 1074,
      "Ġ\\": 1075,
      "fix": 1076,
      "Ġclass": 1077,
      "Ġwhich": 1078,
      "http": 1079,
      "Ġoutput": 1080,
      "ME": 1081,
      "obj": 1082,
      "Ġab": 1083,
      "ach": 1084,
      "lot": 1085,
      "RO": 1086,
      "action": 1087,
      "cal": 1088,
      "Ġspeci": 1089,
      "rame": 1090,
      "method": 1091,
      "auth": 1092,
      "'])": 1093,
      "cs": 1094,
      "Ġwas": 1095,
      "Ġline": 1096,
      "Ġpass": 1097,
      "itle": 1098,
      "write": 1099,
      "man": 1100,
      "Ġ['": 1101,
      "arent": 1102,
      "AS": 1103,
      "mb": 1104,
      "ark": 1105,
      "message": 1106,
      "Ġfil": 1107,
      "cord": 1108,
      "Ke": 1109,
      "Ġapp": 1110,
      "utils": 1111,
      "uct": 1112,
      "ref": 1113,
      "og": 1114,
      "base": 1115,
      "lp": 1116,
      "fil": 1117,
      "ĊĠĠĠĠĠĠĠĠĠĠĠĠĠĠĠĠĠĠĠĠĠĠĠĠĠĠĠ": 1118,
      "ical": 1119,
      "tri": 1120,
      "call": 1121,
      "Ġinstance": 1122,
      "Ġcreate": 1123,
      "Ġerror": 1124,
      "perty": 1125,
      "Ġcontext": 1126,
      "Ġother": 1127,
      "check": 1128,
      "Ġbu": 1129,
      "nel": 1130,
      "point": 1131,
      "Ġurl": 1132,
      "md": 1133,
      "ax": 1134,
      "plit": 1135,
      "input": 1136,
      "local": 1137,
      "Ġmethod": 1138,
      "IC": 1139,
      "ution": 1140,
      "fl": 1141,
      "ww": 1142,
      "nd": 1143,
      "Ġext": 1144,
      "tings": 1145,
      "ank": 1146,
      "Ġcheck": 1147,
      "json": 1148,
      "ttp": 1149,
      "Ch": 1150,
      "core": 1151,
      "uid": 1152,
      "Ġone": 1153,
      "Ġunder": 1154,
      "length": 1155,
      "output": 1156,
      "Ġfunction": 1157,
      "host": 1158,
      "ariable": 1159,
      "Ġtra": 1160,
      "``": 1161,
      "De": 1162,
      "yst": 1163,
      "ude": 1164,
      "Res": 1165,
      "da": 1166,
      "().": 1167,
      "image": 1168,
      "ong": 1169,
      "Ġ/": 1170,
      "Ġlo": 1171,
      "ines": 1172,
      "32": 1173,
      "dis": 1174,
      "0000": 1175,
      "shape": 1176,
      "ware": 1177,
      "scription": 1178,
      "ler": 1179,
      "Ġpart": 1180,
      "Ġ!": 1181,
      "ameters": 1182,
      "new": 1183,
      "ĠJ": 1184,
      "Ġdist": 1185,
      "Ġargs": 1186,
      "print": 1187,
      "label": 1188,
      "Ġmock": 1189,
      "Ġused": 1190,
      "nection": 1191,
      "'.": 1192,
      "Ġbut": 1193,
      "âĢĻ": 1194,
      "Ġmay": 1195,
      "Ġcall": 1196,
      "mission": 1197,
      "Ġarg": 1198,
      "64": 1199,
      "its": 1200,
      "The": 1201,
      "ts": 1202,
      "inter": 1203,
      "--------------------------------": 1204,
      "ool": 1205,
      "gr": 1206,
      "io": 1207,
      "ash": 1208,
      "unc": 1209,
      "content": 1210,
      "org": 1211,
      "Ġinput": 1212,
      "ump": 1213,
      "Key": 1214,
      "Ġstat": 1215,
      "ensor": 1216,
      "lob": 1217,
      "Ġstate": 1218,
      "move": 1219,
      "ializ": 1220,
      ">>": 1221,
      "20": 1222,
      "parse": 1223,
      "Ġrun": 1224,
      "ding": 1225,
      "Ġ!=": 1226,
      "select": 1227,
      "ds": 1228,
      "quired": 1229,
      "tro": 1230,
      "trans": 1231,
      "project": 1232,
      "ĊĠĠĠĠ": 1233,
      "pri": 1234,
      "cre": 1235,
      "bug": 1236,
      "AC": 1237,
      "ature": 1238,
      "Ġup": 1239,
      "ns": 1240,
      "ld": 1241,
      "Ġmessage": 1242,
      "olume": 1243,
      "'t": 1244,
      "Ġz": 1245,
      "99": 1246,
      "Ġexpected": 1247,
      "ĠCon": 1248,
      "cket": 1249,
      "Ġent": 1250,
      "items": 1251,
      "clo": 1252,
      "lean": 1253,
      "11": 1254,
      "place": 1255,
      "Ġversion": 1256,
      "Ġ``": 1257,
      "ner": 1258,
      "table": 1259,
      "Ġrange": 1260,
      "html": 1261,
      "Ġwhen": 1262,
      "Ġsu": 1263,
      "Ġman": 1264,
      "Ġany": 1265,
      "Ġ.": 1266,
      "ging": 1267,
      "tes": 1268,
      "doc": 1269,
      "play": 1270,
      "Ġinter": 1271,
      "ĠEx": 1272,
      "Ġver": 1273,
      "lement": 1274,
      "================": 1275,
      "ved": 1276,
      "Ġstart": 1277,
      "ee": 1278,
      "ĊĠĠĠĠĠĠĠĠĠĠĠĠĠĠĠĠĠĠĠĠĠĠĠĠĠĠĠĠĠĠĠĠĠĠĠĠĠĠĠĠ": 1279,
      "Ġdate": 1280,
      "Ġbase": 1281,
      "cy": 1282,
      "ension": 1283,
      "np": 1284,
      "((": 1285,
      "sg": 1286,
      "Ġmax": 1287,
      "ager": 1288,
      "ync": 1289,
      "pr": 1290,
      "lay": 1291,
      "ures": 1292,
      "ream": 1293,
      "ids": 1294,
      "Ġvalues": 1295,
      "Ġisinstance": 1296,
      "tin": 1297,
      "Ġact": 1298,
      "Ġstring": 1299,
      "UR": 1300,
      "Ġhelp": 1301,
      "ell": 1302,
      "ater": 1303,
      "split": 1304,
      "List": 1305,
      "rap": 1306,
      "ystem": 1307,
      "25": 1308,
      "adata": 1309,
      "server": 1310,
      "Ġtrans": 1311,
      "andom": 1312,
      "ca": 1313,
      "Ġwork": 1314,
      "rc": 1315,
      "ED": 1316,
      "Ġend": 1317,
      "Ġsys": 1318,
      "rit": 1319,
      "},": 1320,
      "ative": 1321,
      "ars": 1322,
      "Data": 1323,
      "čĊĠĠĠĠĠĠĠĠĠĠĠ": 1324,
      "the": 1325,
      "'))": 1326,
      "bin": 1327,
      "irst": 1328,
      "mock": 1329,
      "Ġmore": 1330,
      "...": 1331,
      "amb": 1332,
      "objects": 1333,
      "ION": 1334,
      "Ġag": 1335,
      "Ġonly": 1336,
      "Ġimage": 1337,
      "params": 1338,
      "Ġreg": 1339,
      "Ġdict": 1340,
      "Ġcurrent": 1341,
      "][": 1342,
      "ateg": 1343,
      "rel": 1344,
      "ING": 1345,
      "Ġspecifi": 1346,
      "ises": 1347,
      "face": 1348,
      "Id": 1349,
      "vis": 1350,
      "File": 1351,
      "ĠY": 1352,
      "aders": 1353,
      "Ġad": 1354,
      "ents": 1355,
      "values": 1356,
      "Ġdoc": 1357,
      "filter": 1358,
      "Co": 1359,
      "Ġ6": 1360,
      "Ġdb": 1361,
      "duct": 1362,
      "orted": 1363,
      "bl": 1364,
      "sum": 1365,
      "event": 1366,
      "ice": 1367,
      "Ġfl": 1368,
      "ates": 1369,
      "Ġ|": 1370,
      "process": 1371,
      "Ġnumber": 1372,
      "inal": 1373,
      "here": 1374,
      "Ser": 1375,
      "000": 1376,
      "\".": 1377,
      "ps": 1378,
      "rt": 1379,
      "feren": 1380,
      "ĠK": 1381,
      "Ġtext": 1382,
      "})": 1383,
      "types": 1384,
      "\"),": 1385,
      "clude": 1386,
      "201": 1387,
      "Ġ>>>": 1388,
      "Ġyour": 1389,
      "Ġ},": 1390,
      "Ġhttp": 1391,
      "Ġ10": 1392,
      "tribute": 1393,
      "equal": 1394,
      "Ġindex": 1395,
      "Se": 1396,
      "be": 1397,
      "Set": 1398,
      "old": 1399,
      "ĠDe": 1400,
      "ific": 1401,
      "resource": 1402,
      "Ġevent": 1403,
      "ible": 1404,
      "ify": 1405,
      "space": 1406,
      "uto": 1407,
      "search": 1408,
      "idth": 1409,
      "ating": 1410,
      "Ġgroup": 1411,
      "ting": 1412,
      "Ġopen": 1413,
      "ists": 1414,
      "ait": 1415,
      "Ġ'''": 1416,
      "andler": 1417,
      "tadata": 1418,
      "uage": 1419,
      "PI": 1420,
      "source": 1421,
      "Ġcopy": 1422,
      "aw": 1423,
      "Ġcontain": 1424,
      "Ġgener": 1425,
      "MA": 1426,
      "ĠâĢ": 1427,
      "IS": 1428,
      "amp": 1429,
      "anguage": 1430,
      "lename": 1431,
      "[:": 1432,
      "gle": 1433,
      "Ġover": 1434,
      "uration": 1435,
      "over": 1436,
      "ten": 1437,
      "annel": 1438,
      "'):": 1439,
      "delete": 1440,
      "Ġupdate": 1441,
      "ous": 1442,
      "pack": 1443,
      "block": 1444,
      "Ġmodels": 1445,
      "Ġsource": 1446,
      "Str": 1447,
      "=[": 1448,
      "ĠReturn": 1449,
      "module": 1450,
      "ĊĠĠĠĠĠĠĠĠĠĠĠĠĠĠĠĠĠĠĠĠĠĠĠĠĠĠĠĠĠĠĠĠĠĠĠĠĠĠĠĠĠĠĠĠĠĠĠĠ": 1451,
      "mary": 1452,
      "ET": 1453,
      "alueError": 1454,
      "order": 1455,
      "LO": 1456,
      "stant": 1457,
      "ĠTest": 1458,
      "lection": 1459,
      "Ġclient": 1460,
      "ick": 1461,
      "ĠX": 1462,
      "Ġcode": 1463,
      "pend": 1464,
      "token": 1465,
      "FI": 1466,
      "En": 1467,
      "AB": 1468,
      "Ġarray": 1469,
      "pec": 1470,
      "ays": 1471,
      "Ġsome": 1472,
      "ENT": 1473,
      "CH": 1474,
      "float": 1475,
      "Ġmust": 1476,
      "vid": 1477,
      "df": 1478,
      "utes": 1479,
      "part": 1480,
      "UL": 1481,
      "Ġfirst": 1482,
      "ru": 1483,
      "service": 1484,
      "ublic": 1485,
      "uments": 1486,
      "Ġfe": 1487,
      "################################": 1488,
      "Par": 1489,
      "urse": 1490,
      "stri": 1491,
      "raw": 1492,
      "ambda": 1493,
      "Ġresource": 1494,
      "uted": 1495,
      "session": 1496,
      "title": 1497,
      "Ġread": 1498,
      "now": 1499,
      "****": 1500,
      "target": 1501,
      "ock": 1502,
      "OT": 1503,
      "Ġquery": 1504,
      "Ġ201": 1505,
      "16": 1506,
      "location": 1507,
      "struct": 1508,
      "link": 1509,
      "ĠUn": 1510,
      "Ġdirect": 1511,
      "ning": 1512,
      "MP": 1513,
      "ĠQ": 1514,
      "viron": 1515,
      "ugh": 1516,
      "fter": 1517,
      "pass": 1518,
      "cent": 1519,
      "gn": 1520,
      "my": 1521,
      "util": 1522,
      "env": 1523,
      "Ġsuper": 1524,
      "flow": 1525,
      "Ġinto": 1526,
      "of": 1527,
      "page": 1528,
      "Ġobj": 1529,
      "msg": 1530,
      "property": 1531,
      "su": 1532,
      "ql": 1533,
      "'}),": 1534,
      "04": 1535,
      "CO": 1536,
      "atter": 1537,
      "patch": 1538,
      "iven": 1539,
      "Ġmin": 1540,
      "filename": 1541,
      "Ġtarget": 1542,
      "ags": 1543,
      "ustom": 1544,
      "ams": 1545,
      "br": 1546,
      "store": 1547,
      "Ġvalid": 1548,
      "eta": 1549,
      "Ġthey": 1550,
      "indow": 1551,
      "igh": 1552,
      "nal": 1553,
      "ton": 1554,
      "uple": 1555,
      "Ġrow": 1556,
      "Ġax": 1557,
      "fore": 1558,
      "ract": 1559,
      "Ġ--": 1560,
      "Ġform": 1561,
      "Ġdistrib": 1562,
      "Ġjson": 1563,
      "Ġaction": 1564,
      "ugin": 1565,
      "DO": 1566,
      "Un": 1567,
      "ĠSt": 1568,
      "river": 1569,
      "={": 1570,
      "task": 1571,
      "template": 1572,
      "Ġitem": 1573,
      "cache": 1574,
      "ptional": 1575,
      "sign": 1576,
      "open": 1577,
      "ename": 1578,
      "sent": 1579,
      "TT": 1580,
      "Ġback": 1581,
      "gram": 1582,
      "Ġtheir": 1583,
      "post": 1584,
      "cond": 1585,
      "Ġcontent": 1586,
      "ert": 1587,
      "Ġauth": 1588,
      "Ġfields": 1589,
      "Ġproject": 1590,
      "names": 1591,
      "debug": 1592,
      "PE": 1593,
      "Ġvi": 1594,
      "Ġfiles": 1595,
      "vo": 1596,
      "Not": 1597,
      "AD": 1598,
      "files": 1599,
      "Ġpos": 1600,
      "ĠAN": 1601,
      "Ġmake": 1602,
      "ftware": 1603,
      "device": 1604,
      "Di": 1605,
      "Ġrel": 1606,
      "ility": 1607,
      "Ġmodule": 1608,
      "Ġmsg": 1609,
      "cri": 1610,
      "find": 1611,
      "cor": 1612,
      "Ġsp": 1613,
      "options": 1614,
      "lobal": 1615,
      "ference": 1616,
      "fir": 1617,
      "ities": 1618,
      "Ġlabel": 1619,
      "Ġpri": 1620,
      "Ġimp": 1621,
      "keys": 1622,
      "lication": 1623,
      "Ġ8": 1624,
      "etwork": 1625,
      "CON": 1626,
      "pp": 1627,
      "Ġinit": 1628,
      "PO": 1629,
      "Ġneed": 1630,
      "ffer": 1631,
      "network": 1632,
      "ccess": 1633,
      "function": 1634,
      "teger": 1635,
      "Ġeach": 1636,
      "ential": 1637,
      "umpy": 1638,
      "Ġ]": 1639,
      "ization": 1640,
      "Get": 1641,
      "vert": 1642,
      "ĊĠĠĠĠĠĠĠĠĠĠĠĠ": 1643,
      "Ob": 1644,
      "Ġdoes": 1645,
      "IL": 1646,
      "licy": 1647,
      "Ġcal": 1648,
      "tag": 1649,
      "ia": 1650,
      "Ġsize": 1651,
      "exec": 1652,
      "Ġformat": 1653,
      "save": 1654,
      "direct": 1655,
      "({": 1656,
      "Time": 1657,
      "ĠOR": 1658,
      "Ġcor": 1659,
      "Ġkwargs": 1660,
      "ialize": 1661,
      "address": 1662,
      "air": 1663,
      "temp": 1664,
      "Model": 1665,
      "15": 1666,
      "dy": 1667,
      "column": 1668,
      "wo": 1669,
      "ics": 1670,
      "AG": 1671,
      "lect": 1672,
      "02": 1673,
      "Ġfol": 1674,
      "email": 1675,
      "HO": 1676,
      "Ġpage": 1677,
      "root": 1678,
      "resh": 1679,
      "mer": 1680,
      "Ġalso": 1681,
      "ormal": 1682,
      "ffe": 1683,
      "</": 1684,
      "err": 1685,
      "CT": 1686,
      "func": 1687,
      "ie": 1688,
      "Ċĉĉĉ": 1689,
      "Ġtable": 1690,
      "mark": 1691,
      "ĊĠĠĠĠĠĠĠĠĠĠĠĠĠĠĠĠĠĠĠĠĠĠĠĠĠĠĠĠĠĠĠ": 1692,
      "\"],": 1693,
      "ĠPro": 1694,
      "Ġchange": 1695,
      "arning": 1696,
      "mplement": 1697,
      "ply": 1698,
      "idget": 1699,
      "Ġass": 1700,
      "ped": 1701,
      "andle": 1702,
      "sho": 1703,
      "18": 1704,
      "command": 1705,
      "lease": 1706,
      "Char": 1707,
      "utf": 1708,
      "round": 1709,
      "Ġthere": 1710,
      "Ġport": 1711,
      "build": 1712,
      "Ċĉĉĉĉ": 1713,
      "Ġoptions": 1714,
      "Ġlogging": 1715,
      "Ġrequired": 1716,
      "foo": 1717,
      "Case": 1718,
      "chema": 1719,
      "ĠReturns": 1720,
      "Ġinst": 1721,
      "Cl": 1722,
      "copy": 1723,
      "ody": 1724,
      "ique": 1725,
      "Ġgiven": 1726,
      "Up": 1727,
      "Ġcls": 1728,
      ")))": 1729,
      "script": 1730,
      "ops": 1731,
      "Ġoper": 1732,
      "box": 1733,
      "formation": 1734,
      "var": 1735,
      "idd": 1736,
      "Ġcommand": 1737,
      "range": 1738,
      "ĊĠĠĠĠĠĠĠĠĠĠĠĠĠ": 1739,
      "NA": 1740,
      "cls": 1741,
      "settings": 1742,
      "Ġorder": 1743,
      "regist": 1744,
      "amples": 1745,
      "mpty": 1746,
      "Ġfloat": 1747,
      "ĠAr": 1748,
      "parent": 1749,
      "HE": 1750,
      "ions": 1751,
      "hed": 1752,
      "frame": 1753,
      "Ġthan": 1754,
      "top": 1755,
      "Ġfound": 1756,
      "ĠValueError": 1757,
      "graph": 1758,
      "US": 1759,
      "quence": 1760,
      "Ar": 1761,
      "other": 1762,
      "Ġhost": 1763,
      "exception": 1764,
      "Ġ->": 1765,
      "change": 1766,
      "(_": 1767,
      "uuid": 1768,
      "Ġmat": 1769,
      "iled": 1770,
      "Ġits": 1771,
      "uster": 1772,
      "az": 1773,
      "Ġ(\"": 1774,
      "Ġmatch": 1775,
      "pert": 1776,
      "ful": 1777,
      "Ġcontin": 1778,
      "30": 1779,
      "oogle": 1780,
      "Ġ7": 1781,
      "Ġtf": 1782,
      "close": 1783,
      "very": 1784,
      "actory": 1785,
      "has": 1786,
      "cope": 1787,
      "any": 1788,
      "Ġdjango": 1789,
      "current": 1790,
      ":`": 1791,
      "Ġusing": 1792,
      "Ġ'/": 1793,
      "rix": 1794,
      "Ġparser": 1795,
      "TR": 1796,
      "24": 1797,
      "level": 1798,
      "Col": 1799,
      "Ġexp": 1800,
      "To": 1801,
      "Ġstatus": 1802,
      "34": 1803,
      "ameter": 1804,
      "als": 1805,
      "Value": 1806,
      "Ġdtype": 1807,
      "atab": 1808,
      "ome": 1809,
      "mt": 1810,
      "python": 1811,
      "Ġwhile": 1812,
      "bar": 1813,
      "Request": 1814,
      "opy": 1815,
      "assertTrue": 1816,
      "Ġserver": 1817,
      "rad": 1818,
      "ular": 1819,
      "datetime": 1820,
      "plot": 1821,
      "ized": 1822,
      "atabase": 1823,
      "Ġthen": 1824,
      ")]": 1825,
      "Ġ200": 1826,
      "50": 1827,
      "ven": 1828,
      "body": 1829,
      "verse": 1830,
      "14": 1831,
      "ATE": 1832,
      "admin": 1833,
      "19": 1834,
      "TY": 1835,
      "xy": 1836,
      "hout": 1837,
      "itions": 1838,
      "mode": 1839,
      "ĠCON": 1840,
      "ĠAn": 1841,
      "Ġcase": 1842,
      "UN": 1843,
      "license": 1844,
      "match": 1845,
      "ither": 1846,
      "Ġchild": 1847,
      "www": 1848,
      "DI": 1849,
      "Ġprovi": 1850,
      "Ġwho": 1851,
      "{}": 1852,
      "::": 1853,
      "Ġbeen": 1854,
      "aises": 1855,
      "ffect": 1856,
      "Ġq": 1857,
      "pop": 1858,
      "Ġblock": 1859,
      "Form": 1860,
      "Ġlimit": 1861,
      "ĠSee": 1862,
      "ear": 1863,
      ".,": 1864,
      "ML": 1865,
      "perties": 1866,
      "queue": 1867,
      "domain": 1868,
      "User": 1869,
      "Ġsame": 1870,
      "off": 1871,
      "ĊĠĠĠĠĠĠĠĠĠĠĠĠĠĠĠĠĠĠĠĠĠĠĠĠĠ": 1872,
      "train": 1873,
      "Base": 1874,
      "Ġqu": 1875,
      "ched": 1876,
      "sl": 1877,
      "Ġtask": 1878,
      "200": 1879,
      "ĠOF": 1880,
      "String": 1881,
      "gener": 1882,
      "Ġsign": 1883,
      "ols": 1884,
      "ulti": 1885,
      "icode": 1886,
      "volume": 1887,
      "Ġbody": 1888,
      "tributes": 1889,
      "dic": 1890,
      "ward": 1891,
      "xml": 1892,
      "last": 1893,
      "Ġparent": 1894,
      "ĊĠĠĠĠĠĠĠĠĠĠĠĠĠĠ": 1895,
      "number": 1896,
      "req": 1897,
      "Object": 1898,
      "asses": 1899,
      "*-": 1900,
      "less": 1901,
      "Ġshape": 1902,
      "ĠIN": 1903,
      "wit": 1904,
      "Ġdatetime": 1905,
      "Ġparams": 1906,
      "ĊĠĠĠĠĊĠĠĠ": 1907,
      "CharField": 1908,
      "Ġwhere": 1909,
      "kip": 1910,
      "Ġbet": 1911,
      "trol": 1912,
      "orage": 1913,
      "gen": 1914,
      "ĠPy": 1915,
      "Com": 1916,
      "Exception": 1917,
      "ĠCh": 1918,
      "Text": 1919,
      "Ġabout": 1920,
      "raph": 1921,
      "ailable": 1922,
      "ote": 1923,
      "stack": 1924,
      "Ġprocess": 1925,
      "pc": 1926,
      "lem": 1927,
      "fer": 1928,
      "Ġsession": 1929,
      "job": 1930,
      "reak": 1931,
      "']['": 1932,
      "mem": 1933,
      "Ġdistributed": 1934,
      "ifier": 1935,
      "connect": 1936,
      "Node": 1937,
      "Ġresults": 1938,
      "Ġthem": 1939,
      "Ġ{\"": 1940,
      "Ġfilename": 1941,
      "lower": 1942,
      "metadata": 1943,
      "Ġservice": 1944,
      "ubli": 1945,
      "EX": 1946,
      "').": 1947,
      "entity": 1948,
      "atures": 1949,
      "sor": 1950,
      "Ġshow": 1951,
      "Ġ-*-": 1952,
      "Ġbuild": 1953,
      "send": 1954,
      "cr": 1955,
      "ĊĠĠĠĠĠĠĠĠĠĠĠĠĠĠĠĠĠĠĠĠ": 1956,
      "nap": 1957,
      "unk": 1958,
      "ĠWe": 1959,
      "Ġcount": 1960,
      "can": 1961,
      "TTP": 1962,
      "ont": 1963,
      "IG": 1964,
      "Ġvariable": 1965,
      "EST": 1966,
      "opt": 1967,
      "ster": 1968,
      "FA": 1969,
      "Ġsa": 1970,
      "oth": 1971,
      "Ġcontinue": 1972,
      "cript": 1973,
      "03": 1974,
      ")),": 1975,
      "child": 1976,
      "Ġval": 1977,
      "tx": 1978,
      "ĠIt": 1979,
      "abled": 1980,
      "stamp": 1981,
      "Ġpe": 1982,
      "ox": 1983,
      "wait": 1984,
      "Ġlast": 1985,
      "Ġsee": 1986,
      "unit": 1987,
      "Ġ),": 1988,
      "igr": 1989,
      "pk": 1990,
      "Ġwere": 1991,
      "ESS": 1992,
      "ches": 1993,
      "down": 1994,
      "bose": 1995,
      "ale": 1996,
      "nodes": 1997,
      "Ġcolumn": 1998,
      "TestCase": 1999,
      "Ġright": 2000,
      "description": 2001,
      "Ġexception": 2002,
      "Ġfollow": 2003,
      "sy": 2004,
      "('/": 2005,
      "lines": 2006,
      "conf": 2007,
      "]:": 2008,
      "ng": 2009,
      "13": 2010,
      "Ġafter": 2011,
      "password": 2012,
      "iew": 2013,
      "Ġpack": 2014,
      "dtype": 2015,
      "oper": 2016,
      "sol": 2017,
      "Ġallow": 2018,
      "ĊĠĠĠĠĠĠĠĠĠĠĠĠĠĠĠĠĠ": 2019,
      "ĠCo": 2020,
      "Add": 2021,
      "step": 2022,
      "Ġpoint": 2023,
      "Ġfind": 2024,
      "XX": 2025,
      "Return": 2026,
      "missions": 2027,
      "ializer": 2028,
      "exp": 2029,
      "let": 2030,
      "Ġ'%": 2031,
      "ood": 2032,
      "yle": 2033,
      "del": 2034,
      "prefix": 2035,
      "Ġlocal": 2036,
      "IP": 2037,
      "account": 2038,
      "Ġrecord": 2039,
      "100": 2040,
      "nt": 2041,
      "Config": 2042,
      "Po": 2043,
      "cc": 2044,
      "Ġdevice": 2045,
      "Ġph": 2046,
      "nown": 2047,
      "ayer": 2048,
      "width": 2049,
      "Ġhere": 2050,
      "ling": 2051,
      "imple": 2052,
      "ins": 2053,
      "Ġeither": 2054,
      "meta": 2055,
      "ĠException": 2056,
      "22": 2057,
      "Ġchar": 2058,
      "Response": 2059,
      "strip": 2060,
      "Ġav": 2061,
      "cmd": 2062,
      "cle": 2063,
      "âĢĿ": 2064,
      "Ġwrit": 2065,
      "peri": 2066,
      "erson": 2067,
      "ĊĠĠĠĠĠĠĠĠĠĠĠĠĠĠĠĠĠĠĠĠĠ": 2068,
      "static": 2069,
      "aa": 2070,
      "itor": 2071,
      "Ġtemplate": 2072,
      "cp": 2073,
      "Ġthese": 2074,
      "Ġ9": 2075,
      "ailed": 2076,
      "zer": 2077,
      "fn": 2078,
      "opyright": 2079,
      "replace": 2080,
      "Log": 2081,
      "parser": 2082,
      "header": 2083,
      "redential": 2084,
      "Ġtwo": 2085,
      "velo": 2086,
      "'].": 2087,
      "ping": 2088,
      "ĠYou": 2089,
      "Ġoff": 2090,
      "Ġload": 2091,
      "shot": 2092,
      "Ġdiffe": 2093,
      "next": 2094,
      "assertR": 2095,
      "des": 2096,
      "blank": 2097,
      "uture": 2098,
      "day": 2099,
      "Ġprob": 2100,
      "Ġspecific": 2101,
      "Ġ&": 2102,
      "ared": 2103,
      "Group": 2104,
      "xx": 2105,
      "random": 2106,
      "[-": 2107,
      "au": 2108,
      "side": 2109,
      "At": 2110,
      "ights": 2111,
      "stream": 2112,
      "OP": 2113,
      "lied": 2114,
      "null": 2115,
      "Ġlike": 2116,
      "ersion": 2117,
      "17": 2118,
      "Ġselect": 2119,
      "ategory": 2120,
      "55": 2121,
      "older": 2122,
      "sup": 2123,
      "LI": 2124,
      "ĊĊĠĠĠĠĠĠĠĠĠĠĠĠĠĠĠ": 2125,
      "Ġter": 2126,
      "first": 2127,
      "\"))": 2128,
      "Ġsettings": 2129,
      "connection": 2130,
      "make": 2131,
      "Ġtemp": 2132,
      "Ġview": 2133,
      "Ġinformation": 2134,
      "Ġlevel": 2135,
      "CE": 2136,
      "Ġdocument": 2137,
      "Ġmode": 2138,
      "coding": 2139,
      "cli": 2140,
      "Ġlanguage": 2141,
      "View": 2142,
      "tot": 2143,
      "ĠFor": 2144,
      "ween": 2145,
      "]]": 2146,
      "Ġtoken": 2147,
      "ready": 2148,
      "VER": 2149,
      "ĊĠĠĠĠĠĠĠĠĠĠĠĠĠĠĠĠĠĠ": 2150,
      "parameters": 2151,
      "Ġed": 2152,
      "Path": 2153,
      "username": 2154,
      "Ġnumpy": 2155,
      "fy": 2156,
      "ook": 2157,
      "atform": 2158,
      "Ġheader": 2159,
      "option": 2160,
      "Ġorig": 2161,
      "Ġlink": 2162,
      "ithout": 2163,
      "sys": 2164,
      "Ġiter": 2165,
      "ency": 2166,
      "FF": 2167,
      "Ġnext": 2168,
      "expected": 2169,
      "ire": 2170,
      "ian": 2171,
      "Ġ[\"": 2172,
      "assertRaises": 2173,
      "ĊĠĠĠĠĠĠĠĠĠĠ": 2174,
      "mask": 2175,
      "Ġexist": 2176,
      "RAN": 2177,
      "Ġour": 2178,
      "ĊĠĠĠĠĠĠĠĠĠĠĠĠĠĠĠĠĠĠĠĠĠĠ": 2179,
      "'},": 2180,
      "Ġmap": 2181,
      "std": 2182,
      "ause": 2183,
      "Ġbl": 2184,
      "dim": 2185,
      "Ġref": 2186,
      "','": 2187,
      "record": 2188,
      "hel": 2189,
      "ultip": 2190,
      "txt": 2191,
      "ĠCopyright": 2192,
      "ĠANY": 2193,
      "ason": 2194,
      "rop": 2195,
      "hen": 2196,
      "manager": 2197,
      "ush": 2198,
      "wer": 2199,
      "TER": 2200,
      "ined": 2201,
      "Ġexec": 2202,
      "Ġroot": 2203,
      "remove": 2204,
      "mote": 2205,
      "fg": 2206,
      "Ġnetwork": 2207,
      "dist": 2208,
      "Ġpol": 2209,
      "\\\\": 2210,
      "ĊĠĠĠĠĠĠĠĠĊĠĠĠĠĠĠĠ": 2211,
      "logger": 2212,
      "ĠPar": 2213,
      "headers": 2214,
      "Ġopt": 2215,
      "Ġ''": 2216,
      "Ġfilter": 2217,
      "Class": 2218,
      "idx": 2219,
      "ves": 2220,
      "čĊĠĠĠĠĠĠĠĠĠĠĠĠĠĠĠ": 2221,
      "80": 2222,
      "limit": 2223,
      "Ġdirectory": 2224,
      "color": 2225,
      "dev": 2226,
      "ĠSo": 2227,
      "Ġunit": 2228,
      "pen": 2229,
      "NAME": 2230,
      "ffi": 2231,
      "ĠTO": 2232,
      "Ġnon": 2233,
      "only": 2234,
      "site": 2235,
      "Ġdest": 2236,
      "gest": 2237,
      "ported": 2238,
      "Ġ'.": 2239,
      "Ġjob": 2240,
      "Ġ...": 2241,
      "vision": 2242,
      "ish": 2243,
      "tails": 2244,
      "Ġattr": 2245,
      "Ġwithout": 2246,
      "actor": 2247,
      "active": 2248,
      "vironment": 2249,
      "ĠGener": 2250,
      "ants": 2251,
      "tf": 2252,
      "channel": 2253,
      "Ġsy": 2254,
      "dia": 2255,
      "show": 2256,
      "Is": 2257,
      "reat": 2258,
      "Ġtop": 2259,
      "`.": 2260,
      "(*": 2261,
      "fault": 2262,
      "TION": 2263,
      "course": 2264,
      "curity": 2265,
      "tal": 2266,
      "ĠIS": 2267,
      "dices": 2268,
      "ran": 2269,
      "Ġ12": 2270,
      "tocol": 2271,
      "=(": 2272,
      "KE": 2273,
      "56": 2274,
      "argument": 2275,
      "gine": 2276,
      "Dict": 2277,
      "napshot": 2278,
      "inst": 2279,
      "Ġclo": 2280,
      "etch": 2281,
      "true": 2282,
      "sa": 2283,
      "Client": 2284,
      "Me": 2285,
      "troll": 2286,
      "Ġlogger": 2287,
      "Ġold": 2288,
      "utton": 2289,
      "Ġnames": 2290,
      "ĠWAR": 2291,
      "Ġinclude": 2292,
      "ULT": 2293,
      "33": 2294,
      "swith": 2295,
      "rough": 2296,
      "Ġtensor": 2297,
      "ĠAdd": 2298,
      "hash": 2299,
      "redentials": 2300,
      "]))": 2301,
      "onent": 2302,
      "Ġdel": 2303,
      "Ġconnection": 2304,
      "Te": 2305,
      "Ġspecified": 2306,
      "ik": 2307,
      "tem": 2308,
      "Ġbetween": 2309,
      "driver": 2310,
      "contain": 2311,
      "ators": 2312,
      "Ġwo": 2313,
      "Ġbreak": 2314,
      "TH": 2315,
      "ĠSe": 2316,
      "pol": 2317,
      "Ġret": 2318,
      "Ġyield": 2319,
      "dump": 2320,
      "cul": 2321,
      "ctions": 2322,
      "cat": 2323,
      "Ġ19": 2324,
      "Ġ],": 2325,
      "src": 2326,
      "Ġtrain": 2327,
      "Ġreq": 2328,
      "cause": 2329,
      "ĊĠĠĠĠĠĠĠĠĠĠĠĠĠĠĠĠĠĠĠĠĠĠĠĠĠĠĠĠ": 2330,
      "Ġjust": 2331,
      "ĠâĢľ": 2332,
      "No": 2333,
      "AP": 2334,
      "web": 2335,
      "itional": 2336,
      ")):": 2337,
      "way": 2338,
      "entry": 2339,
      "\",\"": 2340,
      "exists": 2341,
      "vers": 2342,
      "Date": 2343,
      "variable": 2344,
      "ient": 2345,
      "batch": 2346,
      "Ġbefore": 2347,
      "access": 2348,
      "abs": 2349,
      "Ġcache": 2350,
      "fs": 2351,
      "Ġstud": 2352,
      "Ġpost": 2353,
      "dest": 2354,
      "Ġcmd": 2355,
      "UP": 2356,
      "spec": 2357,
      ".\"": 2358,
      "Ġapi": 2359,
      "Ġtho": 2360,
      "Ġsoftware": 2361,
      "Ġrandom": 2362,
      "Ġmy": 2363,
      "Ġinfo": 2364,
      ".\")": 2365,
      "Create": 2366,
      "Ġwould": 2367,
      "ĊĠĠĠĠĠĠĠĠĠĠĠĠĠĠĠĠĠĠĠĠĠĠĠĠĠĠ": 2368,
      "pool": 2369,
      "Ġcond": 2370,
      "Ġbecause": 2371,
      "Ġnow": 2372,
      "press": 2373,
      "itive": 2374,
      "ries": 2375,
      "vol": 2376,
      "60": 2377,
      "Ġim": 2378,
      "ince": 2379,
      "mal": 2380,
      "_(": 2381,
      "Ġmain": 2382,
      "gin": 2383,
      "results": 2384,
      "ification": 2385,
      "ived": 2386,
      "Ġlambda": 2387,
      "uter": 2388,
      "Ġren": 2389,
      "Ġtitle": 2390,
      "ingle": 2391,
      "Ġwhat": 2392,
      "axis": 2393,
      "Ġaxis": 2394,
      "product": 2395,
      "contrib": 2396,
      "orld": 2397,
      "imum": 2398,
      "ctionary": 2399,
      "ĠWARRAN": 2400,
      "ui": 2401,
      "ople": 2402,
      "serialize": 2403,
      "cho": 2404,
      "sv": 2405,
      "difi": 2406,
      "Ġparameters": 2407,
      "oci": 2408,
      "author": 2409,
      "ports": 2410,
      "icle": 2411,
      "Ġpython": 2412,
      "Ġresp": 2413,
      "Ġcomple": 2414,
      "lambda": 2415,
      "Info": 2416,
      "common": 2417,
      "Man": 2418,
      "quire": 2419,
      "ector": 2420,
      "oreign": 2421,
      "fake": 2422,
      "rest": 2423,
      "related": 2424,
      ",),": 2425,
      "istory": 2426,
      "Ġheaders": 2427,
      "IO": 2428,
      "thing": 2429,
      "Ġcolor": 2430,
      "TE": 2431,
      "Ġ'-": 2432,
      "ene": 2433,
      "char": 2434,
      "Stat": 2435,
      "CL": 2436,
      "ule": 2437,
      ".')": 2438,
      "Ġow": 2439,
      "Ġsum": 2440,
      "Ġdifferent": 2441,
      "Ġentry": 2442,
      "]['": 2443,
      "pression": 2444,
      "Ġword": 2445,
      "ĠUser": 2446,
      "Ġlength": 2447,
      "example": 2448,
      "Ġdescription": 2449,
      "čĊč": 2450,
      "rid": 2451,
      "TO": 2452,
      "Ġ..": 2453,
      "Sub": 2454,
      "Ġhow": 2455,
      "cer": 2456,
      "ged": 2457,
      "ost": 2458,
      "ages": 2459,
      "Ġcourse": 2460,
      "Ġmem": 2461,
      "total": 2462,
      "URL": 2463,
      "Ġ::": 2464,
      "Al": 2465,
      "čĊčĊĠĠĠ": 2466,
      "ITY": 2467,
      "Ġlook": 2468,
      "execute": 2469,
      "ls": 2470,
      "hat": 2471,
      "Bu": 2472,
      "Ġmost": 2473,
      "Ġgo": 2474,
      "uri": 2475,
      "stop": 2476,
      "ily": 2477,
      "\"):": 2478,
      "ĠSet": 2479,
      "Ġ>=": 2480,
      "Ġsuch": 2481,
      "encode": 2482,
      "troller": 2483,
      "ĊĠĠĠĠĠĠĠĠĠĠĠĠĠĠĠĠĠĠĠĠĠĠĠĠĠĠĠĠĠĠĠĠĠĠĠ": 2484,
      "SI": 2485,
      "Ġvolume": 2486,
      "Ġobjects": 2487,
      "State": 2488,
      "]),": 2489,
      "mplemented": 2490,
      "ivity": 2491,
      "Ġaccess": 2492,
      "Ġdown": 2493,
      "keep": 2494,
      "================================": 2495,
      "duce": 2496,
      "Ġstep": 2497,
      "https": 2498,
      "Ġhis": 2499,
      "ha": 2500,
      "ĠAl": 2501,
      "sets": 2502,
      "tach": 2503,
      "mun": 2504,
      "ĠPython": 2505,
      "Ġtag": 2506,
      "Ġ\"%": 2507,
      "********": 2508,
      "lements": 2509,
      "He": 2510,
      "register": 2511,
      "LIC": 2512,
      "Ġoption": 2513,
      "78": 2514,
      "40": 2515,
      "'\\": 2516,
      "go": 2517,
      "Ġdf": 2518,
      "called": 2519,
      "Auth": 2520,
      "entic": 2521,
      "FAULT": 2522,
      "PRO": 2523,
      "ross": 2524,
      "vm": 2525,
      "tree": 2526,
      "Ġsystem": 2527,
      "Ġsearch": 2528,
      "ĠGet": 2529,
      "plugin": 2530,
      "Ġrepre": 2531,
      "ultiple": 2532,
      "This": 2533,
      "izer": 2534,
      "NU": 2535,
      "tests": 2536,
      "MO": 2537,
      "Ġtuple": 2538,
      "ker": 2539,
      "ayload": 2540,
      "scrib": 2541,
      "late": 2542,
      "Ġus": 2543,
      "QU": 2544,
      "Ġwrite": 2545,
      "ads": 2546,
      "login": 2547,
      "gan": 2548,
      "valu": 2549,
      "alth": 2550,
      "ensions": 2551,
      "Ġcreated": 2552,
      "attern": 2553,
      "ĠWIT": 2554,
      "Inter": 2555,
      "---": 2556,
      "Ġstruct": 2557,
      "ĠAs": 2558,
      "ving": 2559,
      "Ġtri": 2560,
      "fin": 2561,
      "Qu": 2562,
      "Ġfull": 2563,
      "Ġalready": 2564,
      "peline": 2565,
      "Mo": 2566,
      "ĠID": 2567,
      "uring": 2568,
      "alid": 2569,
      "ĠNot": 2570,
      "dered": 2571,
      "gment": 2572,
      "Ġ20": 2573,
      "profile": 2574,
      "ational": 2575,
      "Comp": 2576,
      "ĊĠĠĠĠĠĠĠĠĠĠĠĠĠĠĠĠĠĠĠĠĠĠĠĠĠĠĠĠĠ": 2577,
      "Ġgover": 2578,
      "Ġtrue": 2579,
      "ories": 2580,
      "36": 2581,
      "vider": 2582,
      "entifier": 2583,
      "stra": 2584,
      "Ġexample": 2585,
      "mod": 2586,
      "tect": 2587,
      "oolean": 2588,
      "prec": 2589,
      "Met": 2590,
      "Ġ'\\": 2591,
      "orig": 2592,
      "Index": 2593,
      "Ġ100": 2594,
      "Ġraw": 2595,
      "ux": 2596,
      "ĠRes": 2597,
      "ĊĠĠĠĠĠĠĠĠĠĠĠĠĠĠĠĠĠĠĠĠĠĠĠĠĠĠĠĠĠĠĠĠĠĠĠĠĠĠĠ": 2598,
      "ĠType": 2599,
      "tact": 2600,
      "cies": 2601,
      "ĠAp": 2602,
      "pha": 2603,
      "ĠArgs": 2604,
      "'''": 2605,
      "ĊĊĊĠĠĠ": 2606,
      "setup": 2607,
      "OL": 2608,
      "Ġcalled": 2609,
      "TYPE": 2610,
      "Ġaddress": 2611,
      "comple": 2612,
      "Event": 2613,
      "Le": 2614,
      "va": 2615,
      "Ġthrough": 2616,
      "Ġbool": 2617,
      "Ġthread": 2618,
      "Ġavailable": 2619,
      "cell": 2620,
      "ĠCol": 2621,
      "Ġglobal": 2622,
      "enu": 2623,
      "scope": 2624,
      "Ġdon": 2625,
      "Ġcustom": 2626,
      "Ġtests": 2627,
      "Ġincl": 2628,
      "Ġattribute": 2629,
      "Frame": 2630,
      "Ġmon": 2631,
      "Ġ--------": 2632,
      "ride": 2633,
      "Ġmany": 2634,
      "Ġ$": 2635,
      "cial": 2636,
      "Ġsend": 2637,
      "Service": 2638,
      "SS": 2639,
      "asic": 2640,
      "full": 2641,
      "Ġmark": 2642,
      "ĠCheck": 2643,
      "Ġfollowing": 2644,
      "ely": 2645,
      "Ġtotal": 2646,
      "oreignKey": 2647,
      "Ġarguments": 2648,
      "non": 2649,
      "Ġemail": 2650,
      "Ġelement": 2651,
      "ĠTHE": 2652,
      "Ġparse": 2653,
      "ze": 2654,
      "Ġscal": 2655,
      "Ġregist": 2656,
      "\"])": 2657,
      "handler": 2658,
      "med": 2659,
      "ATION": 2660,
      "Ġplace": 2661,
      "delta": 2662,
      "ĊĊĉ": 2663,
      "ices": 2664,
      "served": 2665,
      "ĠUR": 2666,
      "raises": 2667,
      "Ġfin": 2668,
      "']:": 2669,
      "Integer": 2670,
      "fail": 2671,
      "arm": 2672,
      "Ġ%(": 2673,
      "riter": 2674,
      "ift": 2675,
      "ordin": 2676,
      "points": 2677,
      "88": 2678,
      "75": 2679,
      "GET": 2680,
      "Ġpi": 2681,
      "ĠDi": 2682,
      "~~": 2683,
      "tmp": 2684,
      "wrap": 2685,
      "Ġcho": 2686,
      "conds": 2687,
      "policy": 2688,
      "Ġenum": 2689,
      "book": 2690,
      "Pl": 2691,
      "Ġmis": 2692,
      "Run": 2693,
      "Ġlong": 2694,
      "Ġpeople": 2695,
      "Ġcons": 2696,
      "23": 2697,
      "Ġoptional": 2698,
      "ĊĠĠ": 2699,
      "element": 2700,
      "ges": 2701,
      "metri": 2702,
      "lice": 2703,
      "timeout": 2704,
      "wise": 2705,
      "system": 2706,
      "Ġ'--": 2707,
      "Ġprovided": 2708,
      "Trans": 2709,
      "Ġaccount": 2710,
      "Ġperson": 2711,
      "Ġvis": 2712,
      "offset": 2713,
      "By": 2714,
      "Ġsol": 2715,
      "stats": 2716,
      "async": 2717,
      "iddle": 2718,
      "speci": 2719,
      "For": 2720,
      "OG": 2721,
      "As": 2722,
      "gress": 2723,
      "uch": 2724,
      "Ġcell": 2725,
      "Ġproduct": 2726,
      "Ġpassword": 2727,
      "Ġstream": 2728,
      "licenses": 2729,
      "Ġcollection": 2730,
      "Out": 2731,
      "ability": 2732,
      "VE": 2733,
      "ĠAt": 2734,
      "vate": 2735,
      "Ġmetadata": 2736,
      "ĠCreate": 2737,
      "sample": 2738,
      "All": 2739,
      "errors": 2740,
      "ORT": 2741,
      "Meta": 2742,
      "Ġlines": 2743,
      "Ġenv": 2744,
      "ĠData": 2745,
      "Handler": 2746,
      "unter": 2747,
      "=['": 2748,
      "lin": 2749,
      "EC": 2750,
      "gex": 2751,
      "like": 2752,
      "Ġdepend": 2753,
      "bit": 2754,
      "af": 2755,
      "most": 2756,
      "auto": 2757,
      "layer": 2758,
      "Num": 2759,
      "Ġverbose": 2760,
      "Mock": 2761,
      "board": 2762,
      "\">": 2763,
      "74": 2764,
      "HTTP": 2765,
      "Ġreturns": 2766,
      "Ġcould": 2767,
      "Ġframe": 2768,
      "ĠHe": 2769,
      "deo": 2770,
      "ĠAPI": 2771,
      "bot": 2772,
      "Ġ'_": 2773,
      "required": 2774,
      "Ġprogram": 2775,
      "Ġcoding": 2776,
      ").__": 2777,
      "mall": 2778,
      "Ġeven": 2779,
      "groups": 2780,
      "Ġsingle": 2781,
      "HOUT": 2782,
      "Ġ<=": 2783,
      "actions": 2784,
      "dt": 2785,
      "Ġbatch": 2786,
      "ABLE": 2787,
      "andard": 2788,
      "MS": 2789,
      "derr": 2790,
      "Ġobtain": 2791,
      "Ġwriting": 2792,
      "constant": 2793,
      "Ġvari": 2794,
      "exit": 2795,
      "sql": 2796,
      "Message": 2797,
      "Ġevery": 2798,
      "05": 2799,
      "%(": 2800,
      "KEY": 2801,
      "future": 2802,
      "ENSE": 2803,
      "Check": 2804,
      "google": 2805,
      "Ġdelete": 2806,
      "cast": 2807,
      "Oper": 2808,
      "ĠTODO": 2809,
      "wh": 2810,
      "Ġgetattr": 2811,
      "commit": 2812,
      "reed": 2813,
      "Ġnull": 2814,
      "ias": 2815,
      "real": 2816,
      "conn": 2817,
      "assed": 2818,
      "Ġuid": 2819,
      "public": 2820,
      "Ġchannel": 2821,
      "IND": 2822,
      "Ġweb": 2823,
      "ination": 2824,
      "Ġsave": 2825,
      "Ġbeing": 2826,
      "Ġrece": 2827,
      "Item": 2828,
      "leep": 2829,
      "ssible": 2830,
      "mbol": 2831,
      "Content": 2832,
      "compute": 2833,
      "thread": 2834,
      "validate": 2835,
      "gnore": 2836,
      "ForeignKey": 2837,
      "ĠWITHOUT": 2838,
      "tensor": 2839,
      "display": 2840,
      "Ġsur": 2841,
      "Ġerr": 2842,
      "Ġextra": 2843,
      "schema": 2844,
      "hether": 2845,
      "ĠAll": 2846,
      "Ġdomain": 2847,
      "ĠStr": 2848,
      "Ġerrors": 2849,
      "Ġhand": 2850,
      "TIES": 2851,
      "handle": 2852,
      "ower": 2853,
      "js": 2854,
      "case": 2855,
      "gy": 2856,
      "86": 2857,
      "pth": 2858,
      "come": 2859,
      "PAT": 2860,
      "Ġreal": 2861,
      "application": 2862,
      "ernal": 2863,
      "bytes": 2864,
      "verage": 2865,
      "imp": 2866,
      "Ġhad": 2867,
      "labels": 2868,
      "Ġtimeout": 2869,
      "Ġip": 2870,
      "----------------------------------------------------------------": 2871,
      "unique": 2872,
      "ĊĠĠĠĠĠĠĠĠĠĠĠĠĠĠĠĠĠĠĠĠĠĠĠĠĠĠĠĠĠĠ": 2873,
      "Or": 2874,
      "loy": 2875,
      "Ġlaw": 2876,
      "Ġ',": 2877,
      "29": 2878,
      "Ġdim": 2879,
      "left": 2880,
      "Ġmask": 2881,
      "prob": 2882,
      "pers": 2883,
      "Ġdatabase": 2884,
      "ives": 2885,
      "Ġvar": 2886,
      "idden": 2887,
      "Ġcent": 2888,
      "ically": 2889,
      "roll": 2890,
      "apt": 2891,
      "Ġsupport": 2892,
      "ĠĠĠĠĠĠĠĠĠĠĠĠĠĠĠĠĠĠĠĠĠĠĠĠĠĠĠĠĠĠĠĠ": 2893,
      "Ġutf": 2894,
      "xf": 2895,
      "addr": 2896,
      "position": 2897,
      "Ġconf": 2898,
      "Ġgraph": 2899,
      "ek": 2900,
      "zone": 2901,
      "ĊĠĠĠĠĠĠ": 2902,
      "tags": 2903,
      "(['": 2904,
      "Factory": 2905,
      "26": 2906,
      "Ġhigh": 2907,
      "logy": 2908,
      "Ġtypes": 2909,
      "ited": 2910,
      "ead": 2911,
      "serv": 2912,
      "DIR": 2913,
      "score": 2914,
      "witch": 2915,
      "Instance": 2916,
      "44": 2917,
      "Ġremove": 2918,
      "ways": 2919,
      "[:,": 2920,
      "Ġconfiguration": 2921,
      "rule": 2922,
      "Per": 2923,
      "ness": 2924,
      "Command": 2925,
      "NS": 2926,
      "ĠWARRANTIES": 2927,
      "'][": 2928,
      "ĠSer": 2929,
      "reen": 2930,
      "Ġboth": 2931,
      "ublish": 2932,
      "35": 2933,
      "ĠList": 2934,
      "ĊĊĠĠĠĠĠ": 2935,
      "Ġpermissions": 2936,
      "mean": 2937,
      "wd": 2938,
      "Pre": 2939,
      "09": 2940,
      "ĠNo": 2941,
      "BU": 2942,
      "Ad": 2943,
      "06": 2944,
      "properties": 2945,
      "exc": 2946,
      "arr": 2947,
      "Result": 2948,
      "ĠURL": 2949,
      "sentry": 2950,
      "ship": 2951,
      "seq": 2952,
      "udi": 2953,
      "rate": 2954,
      "Ġauthor": 2955,
      "flags": 2956,
      "Ġprefix": 2957,
      "callback": 2958,
      "section": 2959,
      "Th": 2960,
      "Ġlib": 2961,
      "light": 2962,
      "decode": 2963,
      "startswith": 2964,
      "Found": 2965,
      "normal": 2966,
      "fit": 2967,
      "ites": 2968,
      "Ġempty": 2969,
      "Ġdir": 2970,
      "ialized": 2971,
      "={'": 2972,
      "Ġbin": 2973,
      "xb": 2974,
      "Ġ,": 2975,
      "tools": 2976,
      "Ġimplied": 2977,
      "window": 2978,
      "cluster": 2979,
      "ural": 2980,
      "Ġcommon": 2981,
      "inputs": 2982,
      "shed": 2983,
      "Ġappro": 2984,
      "Ġparameter": 2985,
      "'})": 2986,
      "API": 2987,
      "loads": 2988,
      "words": 2989,
      "gp": 2990,
      "Ġfail": 2991,
      "Ġwant": 2992,
      "vious": 2993,
      "Ġinte": 2994,
      "style": 2995,
      "ti": 2996,
      "Ġreturned": 2997,
      "classes": 2998,
      "ually": 2999,
      "tail": 3000,
      "Ġali": 3001,
      "Ġfunc": 3002,
      "ather": 3003,
      "tax": 3004,
      "xe": 3005,
      "ĠCom": 3006,
      "ĠVersion": 3007,
      "Do": 3008,
      "Ġrender": 3009,
      "onents": 3010,
      "usr": 3011,
      "Ġargument": 3012,
      "agent": 3013,
      "____": 3014,
      "Ġapplic": 3015,
      "Ġwell": 3016,
      "Resource": 3017,
      "77": 3018,
      "ration": 3019,
      "collection": 3020,
      "cimal": 3021,
      "height": 3022,
      "ĠTe": 3023,
      "OF": 3024,
      "liance": 3025,
      "Ġsk": 3026,
      ")[": 3027,
      "ĊĠĠĠĠĠĠĠĠĠĠĠĠĠĠĠĠĠĠĠĠĠĠĠĠĠĠĠĠĠĠĠĠĠ": 3028,
      "Ġdisplay": 3029,
      "Widget": 3030,
      "Ġdictionary": 3031,
      "poch": 3032,
      "chedule": 3033,
      "Ġcorrect": 3034,
      "Ġlocation": 3035,
      "ilder": 3036,
      "Ġdevelo": 3037,
      "primary": 3038,
      "Parser": 3039,
      "Image": 3040,
      "SON": 3041,
      "Ġ16": 3042,
      "Ġway": 3043,
      "An": 3044,
      "Sh": 3045,
      "Ġnormal": 3046,
      "ured": 3047,
      "used": 3048,
      "spe": 3049,
      "Manager": 3050,
      "(-": 3051,
      "POST": 3052,
      "Ġsure": 3053,
      "Ġsc": 3054,
      "\"}": 3055,
      "global": 3056,
      "Ġsecond": 3057,
      "ITION": 3058,
      "container": 3059,
      "backend": 3060,
      "Ġkeys": 3061,
      "Ġmath": 3062,
      "Loc": 3063,
      "++": 3064,
      "HT": 3065,
      "features": 3066,
      "virt": 3067,
      "tle": 3068,
      "Ġ\"/": 3069,
      "ffix": 3070,
      "ane": 3071,
      "ensed": 3072,
      "ision": 3073,
      "Ġutils": 3074,
      "depend": 3075,
      "Element": 3076,
      "Ġ'__": 3077,
      "iss": 3078,
      "role": 3079,
      ");": 3080,
      "Ġshe": 3081,
      "We": 3082,
      "Ġsuccess": 3083,
      "Ġcr": 3084,
      "leted": 3085,
      "Ġagain": 3086,
      "PR": 3087,
      "classmethod": 3088,
      "eded": 3089,
      "solute": 3090,
      "ĠNOT": 3091,
      "Ġdetails": 3092,
      "acter": 3093,
      ":%": 3094,
      "cient": 3095,
      "39": 3096,
      "Ġaut": 3097,
      "Ġscript": 3098,
      "git": 3099,
      "lip": 3100,
      "insert": 3101,
      "ĠKey": 3102,
      "Lo": 3103,
      "rand": 3104,
      "kens": 3105,
      "sw": 3106,
      "Line": 3107,
      "grad": 3108,
      "scale": 3109,
      "created": 3110,
      "Ġconstant": 3111,
      "=%": 3112,
      "Ġleft": 3113,
      "ssue": 3114,
      "NO": 3115,
      ":]": 3116,
      "sort": 3117,
      "assertEquals": 3118,
      "oot": 3119,
      "Ġart": 3120,
      "ysis": 3121,
      "Ġgen": 3122,
      "Ġlar": 3123,
      "cry": 3124,
      "environ": 3125,
      "Ġpassed": 3126,
      "custom": 3127,
      "Size": 3128,
      "erate": 3129,
      "term": 3130,
      "WAR": 3131,
      "ĠGeneral": 3132,
      "Ġown": 3133,
      "Table": 3134,
      "ones": 3135,
      "Ġignore": 3136,
      "quires": 3137,
      "Fil": 3138,
      "\");": 3139,
      "diff": 3140,
      "ret": 3141,
      "interface": 3142,
      "Ġkeep": 3143,
      "END": 3144,
      "Ġtree": 3145,
      "Ġunicode": 3146,
      "extra": 3147,
      "App": 3148,
      "straint": 3149,
      "bound": 3150,
      "ons": 3151,
      "arnings": 3152,
      "Py": 3153,
      "aml": 3154,
      "else": 3155,
      "SER": 3156,
      "27": 3157,
      "timestamp": 3158,
      "DB": 3159,
      "IM": 3160,
      "rows": 3161,
      "utor": 3162,
      "Ġitems": 3163,
      "icro": 3164,
      "28": 3165,
      "Ġstd": 3166,
      "ero": 3167,
      "ĠLOG": 3168,
      "clean": 3169,
      "License": 3170,
      "EL": 3171,
      "iod": 3172,
      "users": 3173,
      "ixed": 3174,
      "DEFAULT": 3175,
      "Ġmove": 3176,
      ".*": 3177,
      "mount": 3178,
      "na": 3179,
      "Ġactual": 3180,
      "Ġconnect": 3181,
      "(__": 3182,
      "Ġreport": 3183,
      "ĠApache": 3184,
      "Ġplt": 3185,
      "except": 3186,
      "(?": 3187,
      "/{": 3188,
      "rain": 3189,
      "FOR": 3190,
      "alog": 3191,
      "37": 3192,
      "Des": 3193,
      "messages": 3194,
      "acy": 3195,
      "aded": 3196,
      "Ġsample": 3197,
      "csv": 3198,
      "Ġfake": 3199,
      "Ġhandle": 3200,
      "PL": 3201,
      "08": 3202,
      "Ġhasattr": 3203,
      "ĠZ": 3204,
      "\").": 3205,
      "report": 3206,
      "img": 3207,
      "Ġposition": 3208,
      "Ġclean": 3209,
      "Ġrequests": 3210,
      "Ġmethods": 3211,
      "Ġknow": 3212,
      "ĠDE": 3213,
      "stdout": 3214,
      "ĠSoftware": 3215,
      "__)": 3216,
      "empty": 3217,
      "Ġawait": 3218,
      "head": 3219,
      "matrix": 3220,
      "Ġht": 3221,
      "({'": 3222,
      "cloud": 3223,
      "tab": 3224,
      "Ġsrc": 3225,
      "dataset": 3226,
      "extend": 3227,
      "Ġwrap": 3228,
      "ĊĠĠĠĠĠĠĠĠĠĠĠĠĠĠĠĠĠĠĠĠĠĠĠĠĠĠĠĠĠĠĠĠĠĠ": 3229,
      "Ext": 3230,
      "storage": 3231,
      "Ġsim": 3232,
      "akes": 3233,
      "skip": 3234,
      "package": 3235,
      "apping": 3236,
      "compile": 3237,
      "66": 3238,
      "Ġhome": 3239,
      "Ġeffect": 3240,
      "columns": 3241,
      "Ġnet": 3242,
      "Invalid": 3243,
      "dified": 3244,
      "ĠOr": 3245,
      "Ġsql": 3246,
      "On": 3247,
      "cd": 3248,
      "ulation": 3249,
      "platform": 3250,
      "ools": 3251,
      "bind": 3252,
      "CONF": 3253,
      "ĠPublic": 3254,
      "hy": 3255,
      "Dis": 3256,
      "DAT": 3257,
      "cret": 3258,
      "long": 3259,
      "Ġoriginal": 3260,
      "lex": 3261,
      "nn": 3262,
      "Ġreverse": 3263,
      "Ã©": 3264,
      "ended": 3265,
      "Ġcre": 3266,
      "Fe": 3267,
      "greg": 3268,
      "Ġnodes": 3269,
      "Ġmeta": 3270,
      "assign": 3271,
      "AA": 3272,
      "aut": 3273,
      "Ġincre": 3274,
      "ĠEn": 3275,
      "ases": 3276,
      "PATH": 3277,
      "apache": 3278,
      "Ġsorted": 3279,
      "Ġcontrol": 3280,
      "folder": 3281,
      "Ġ15": 3282,
      "argv": 3283,
      "UB": 3284,
      "Ġ\"\\": 3285,
      "ayout": 3286,
      "cker": 3287,
      "Gener": 3288,
      "Ġpop": 3289,
      "38": 3290,
      "icensed": 3291,
      "weight": 3292,
      "bb": 3293,
      "Pos": 3294,
      "ĠKIND": 3295,
      "Auto": 3296,
      "home": 3297,
      "ĠĠĠĠĠĠĠĠĠĠĠ": 3298,
      "Ġthose": 3299,
      "rep": 3300,
      "sequence": 3301,
      "Ġmean": 3302,
      "rpc": 3303,
      "coder": 3304,
      "Input": 3305,
      "Ġ):": 3306,
      "void": 3307,
      "language": 3308,
      "Ġ\"\"": 3309,
      "21": 3310,
      "/%": 3311,
      "rection": 3312,
      "Ġstop": 3313,
      "zip": 3314,
      "pytest": 3315,
      "inx": 3316,
      "member": 3317,
      "With": 3318,
      "grid": 3319,
      "multi": 3320,
      "Box": 3321,
      "mbers": 3322,
      "tex": 3323,
      "bers": 3324,
      "unded": 3325,
      "Ġpytest": 3326,
      "desc": 3327,
      "Ġhttps": 3328,
      "lint": 3329,
      "Ġfree": 3330,
      "Ġdisable": 3331,
      "allow": 3332,
      "ertific": 3333,
      "ĠĠĠĠĠĠĠĠĠĠĠĠ": 3334,
      "edit": 3335,
      "Ġexc": 3336,
      "PC": 3337,
      "RA": 3338,
      "Ġspace": 3339,
      "itude": 3340,
      "lat": 3341,
      "Ġassoci": 3342,
      "avor": 3343,
      "ĠComp": 3344,
      "Ġpartic": 3345,
      "Ġvariables": 3346,
      "encies": 3347,
      "si": 3348,
      "Ġchildren": 3349,
      "VAL": 3350,
      "success": 3351,
      "ithub": 3352,
      "ĠLicensed": 3353,
      "route": 3354,
      "Ġunique": 3355,
      "ili": 3356,
      "Ġexpress": 3357,
      "Ġenumerate": 3358,
      "Ġest": 3359,
      "###": 3360,
      "Ġplot": 3361,
      "`,": 3362,
      "bove": 3363,
      "Ġtmp": 3364,
      "Ġxml": 3365,
      "invalid": 3366,
      "year": 3367,
      "Ġinputs": 3368,
      "07": 3369,
      "Ġwidth": 3370,
      "Server": 3371,
      "pose": 3372,
      "ASS": 3373,
      "assertFalse": 3374,
      "Ġadded": 3375,
      "chain": 3376,
      "Tensor": 3377,
      "leg": 3378,
      "hes": 3379,
      "zeros": 3380,
      "Ġbased": 3381,
      "fetch": 3382,
      "children": 3383,
      "Ġlayer": 3384,
      "jo": 3385,
      ",),(": 3386,
      "socket": 3387,
      "ric": 3388,
      "Ġattributes": 3389,
      "Ġoffset": 3390,
      "Ġapplicable": 3391,
      "45": 3392,
      "Ġwithin": 3393,
      "Ġ})": 3394,
      "oken": 3395,
      "vars": 3396,
      "annot": 3397,
      "Ġcluster": 3398,
      "From": 3399,
      "DITION": 3400,
      "EXT": 3401,
      "ILITY": 3402,
      "#!": 3403,
      "LOG": 3404,
      "indices": 3405,
      "Ġconn": 3406,
      "ĠMo": 3407,
      "MENT": 3408,
      "cu": 3409,
      "ublished": 3410,
      "Ġmigr": 3411,
      "amo": 3412,
      "Ġgenerate": 3413,
      "CK": 3414,
      "respon": 3415,
      "Reg": 3416,
      "Ġ'',": 3417,
      "ĠRun": 3418,
      "Ġabove": 3419,
      "Ġsubject": 3420,
      "exceptions": 3421,
      "duction": 3422,
      "Ġpackage": 3423,
      "FO": 3424,
      "xture": 3425,
      "LICENSE": 3426,
      "ĠOn": 3427,
      "ified": 3428,
      "fra": 3429,
      "ĊĠĠĠĠĠĠĠĠĠĠĠĠĠĠĠĠĠĠĠĠĠĠĠĠĠĠĠĠĠĠĠĠĠĠĠĠĠ": 3430,
      "Valid": 3431,
      "ĠDefault": 3432,
      "ERR": 3433,
      "Ġlabels": 3434,
      "Ġloc": 3435,
      "ground": 3436,
      "attributes": 3437,
      "Context": 3438,
      "Ġduring": 3439,
      "ier": 3440,
      "buffer": 3441,
      "ASE": 3442,
      "ACK": 3443,
      "Ġsetup": 3444,
      "Ġsince": 3445,
      "iddleware": 3446,
      "Ac": 3447,
      "Ġproperty": 3448,
      "dify": 3449,
      "dumps": 3450,
      "ears": 3451,
      "Ġworld": 3452,
      "Ġge": 3453,
      "Ġdataset": 3454,
      "xc": 3455,
      "Ġoperation": 3456,
      "oto": 3457,
      "stract": 3458,
      "################################################################": 3459,
      "Implemented": 3460,
      "ALL": 3461,
      "rary": 3462,
      "Ġmatrix": 3463,
      "QL": 3464,
      "ĠParameters": 3465,
      "assertIs": 3466,
      "button": 3467,
      "Ġ\",": 3468,
      "pid": 3469,
      "until": 3470,
      "('\\": 3471,
      "Property": 3472,
      "SION": 3473,
      "category": 3474,
      "Ġentity": 3475,
      "win": 3476,
      "SC": 3477,
      "Ø§": 3478,
      "Status": 3479,
      "dat": 3480,
      "Ġinitial": 3481,
      "Ġinstead": 3482,
      "known": 3483,
      "div": 3484,
      "////": 3485,
      "staticmethod": 3486,
      "Ġhash": 3487,
      "question": 3488,
      "factory": 3489,
      "Ġet": 3490,
      "Ġpossible": 3491,
      "GE": 3492,
      "Ġwater": 3493,
      "anel": 3494,
      "49": 3495,
      "Ġpublic": 3496,
      "Ġdoesn": 3497,
      "Ġmer": 3498,
      "pair": 3499,
      "Ġdebug": 3500,
      "Call": 3501,
      "requ": 3502,
      "phinx": 3503,
      "ctx": 3504,
      "bool": 3505,
      "samples": 3506,
      "math": 3507,
      "ixin": 3508,
      "images": 3509,
      "anch": 3510,
      "uble": 3511,
      "255": 3512,
      "la": 3513,
      "loss": 3514,
      "Ġasync": 3515,
      "Ġhtml": 3516,
      "]+": 3517,
      "states": 3518,
      "čĊčĊĠĠĠĠĠĠĠ": 3519,
      "generate": 3520,
      "Ġenvironment": 3521,
      "game": 3522,
      "vs": 3523,
      "Ġcallback": 3524,
      "FILE": 3525,
      "Ġ18": 3526,
      "views": 3527,
      "resp": 3528,
      "prop": 3529,
      "Ġtake": 3530,
      "fic": 3531,
      "Ġwhether": 3532,
      "ava": 3533,
      "Ġsen": 3534,
      "Ġagreed": 3535,
      "Ġwindow": 3536,
      "cap": 3537,
      "uding": 3538,
      "ered": 3539,
      "assertIn": 3540,
      "vals": 3541,
      "directory": 3542,
      "kw": 3543,
      "amily": 3544,
      "Ġcontaining": 3545,
      "numpy": 3546,
      "Ġsequence": 3547,
      "hex": 3548,
      "click": 3549,
      "RES": 3550,
      "ĠAND": 3551,
      "events": 3552,
      "comment": 3553,
      "ummy": 3554,
      "Ġanal": 3555,
      "ĠHTTP": 3556,
      "OS": 3557,
      "dot": 3558,
      "Ġker": 3559,
      "STR": 3560,
      "engine": 3561,
      "ASIS": 3562,
      "namespace": 3563,
      "Ġ'<": 3564,
      "Ġcompliance": 3565,
      "help": 3566,
      "attribute": 3567,
      "Ġ\".": 3568,
      "Query": 3569,
      "master": 3570,
      "Ġplugin": 3571,
      "Ġids": 3572,
      "rs": 3573,
      "59": 3574,
      "Column": 3575,
      "untry": 3576,
      "ĠString": 3577,
      "release": 3578,
      "Ġforce": 3579,
      "-%": 3580,
      "alk": 3581,
      "bs": 3582,
      "Ġinterface": 3583,
      "tom": 3584,
      "(**": 3585,
      "medi": 3586,
      "Ġsection": 3587,
      "rl": 3588,
      "Ġpick": 3589,
      "Ġgoverning": 3590,
      "disk": 3591,
      "Ġidx": 3592,
      "Ġeq": 3593,
      "card": 3594,
      "Ġbound": 3595,
      "Ġfeature": 3596,
      "DITIONS": 3597,
      "Ġgrad": 3598,
      "Ġ----------": 3599,
      "ĠName": 3600,
      "yp": 3601,
      "Ġday": 3602,
      "dirname": 3603,
      "proto": 3604,
      "ateway": 3605,
      "ender": 3606,
      "Ġ----": 3607,
      "lim": 3608,
      "docs": 3609,
      "HER": 3610,
      "Ġlimitations": 3611,
      "DateTime": 3612,
      "enabled": 3613,
      "ĊĠĠĠĠĠĠĠĠĠĠĠĠĠĠĠĠĠĠĠĠĠĠĠĠĠĠĠĠĠĠĠĠĠĠĠĠ": 3614,
      "once": 3615,
      "48": 3616,
      "loop": 3617,
      "And": 3618,
      "abc": 3619,
      "ĠsetUp": 3620,
      "raise": 3621,
      "()[": 3622,
      "ĠFOR": 3623,
      "ets": 3624,
      "ube": 3625,
      "ĠCONDITIONS": 3626,
      "Ġunittest": 3627,
      "Ġzip": 3628,
      "STAT": 3629,
      "ĠĠĠĠĠĠĠĠĠ": 3630,
      "ĠBASIS": 3631,
      "Ġpd": 3632,
      "Ġctx": 3633,
      "#!/": 3634,
      "clear": 3635,
      "Ġcfg": 3636,
      "Ġmessages": 3637,
      "Map": 3638,
      "Connection": 3639,
      "ba": 3640,
      "tool": 3641,
      "Array": 3642,
      "Ġside": 3643,
      "76": 3644,
      "Ġauto": 3645,
      "Ġbytes": 3646,
      "repr": 3647,
      "Ġissue": 3648,
      "Ġorgan": 3649,
      "render": 3650,
      "mar": 3651,
      "Ġvery": 3652,
      "Ġfailed": 3653,
      "ĠUnless": 3654,
      "ĠTo": 3655,
      "times": 3656,
      "ĠGNU": 3657,
      "IntegerField": 3658,
      "licit": 3659,
      "ority": 3660,
      "Of": 3661,
      "security": 3662,
      "cores": 3663,
      "uff": 3664,
      "Ġstore": 3665,
      "IB": 3666,
      "mi": 3667,
      "ored": 3668,
      "ĠWhen": 3669,
      "DS": 3670,
      "proxy": 3671,
      "Ġshort": 3672,
      "Ġreplace": 3673,
      "Ġanother": 3674,
      "Ġexists": 3675,
      "structor": 3676,
      "Ġrole": 3677,
      "install": 3678,
      "tk": 3679,
      "ValueError": 3680,
      "Ġcar": 3681,
      "force": 3682,
      "hass": 3683,
      "ĠNote": 3684,
      "Ġproperties": 3685,
      "tack": 3686,
      "Ġ[[": 3687,
      "Ġusername": 3688,
      "Ġencoding": 3689,
      "Ġsort": 3690,
      "sec": 3691,
      "uded": 3692,
      "imer": 3693,
      "sk": 3694,
      "If": 3695,
      "ĠAny": 3696,
      "aved": 3697,
      "Ġspe": 3698,
      "ibility": 3699,
      "rowser": 3700,
      "attrs": 3701,
      "Ġparam": 3702,
      "UTH": 3703,
      "TEST": 3704,
      "Ġrule": 3705,
      "ident": 3706,
      "Ġindic": 3707,
      "79": 3708,
      "CC": 3709,
      "ai": 3710,
      "inition": 3711,
      "divid": 3712,
      "sole": 3713,
      "AY": 3714,
      "snapshot": 3715,
      "uman": 3716,
      "Ġwait": 3717,
      "Ġmultiple": 3718,
      "Ġnamespace": 3719,
      "lear": 3720,
      "Ġsent": 3721,
      "Ġmak": 3722,
      "INT": 3723,
      "Ġconditions": 3724,
      "nan": 3725,
      "Ġskip": 3726,
      "Ġyear": 3727,
      ",'": 3728,
      "sm": 3729,
      "include": 3730,
      "resol": 3731,
      "feature": 3732,
      "Ġhealth": 3733,
      "Ġfunctions": 3734,
      "Ġtx": 3735,
      "bed": 3736,
      "warning": 3737,
      "Ġreference": 3738,
      "Ġpresent": 3739,
      "NotFound": 3740,
      "ĠQt": 3741,
      "pace": 3742,
      "Ġreason": 3743,
      "}}": 3744,
      "UM": 3745,
      "Ġcap": 3746,
      "AM": 3747,
      "Ġpr": 3748,
      "Ġsupported": 3749,
      "Ġcontains": 3750,
      "Ġblank": 3751,
      "distrib": 3752,
      "Ġsix": 3753,
      "Ġcolumns": 3754,
      "ABILITY": 3755,
      "Ġimplement": 3756,
      "tt": 3757,
      "Ġyears": 3758,
      "UD": 3759,
      "Page": 3760,
      "',),": 3761,
      "Ġadmin": 3762,
      "forms": 3763,
      "AGE": 3764,
      "eval": 3765,
      "ĠHttp": 3766,
      ")/": 3767,
      "Ġlater": 3768,
      "unicode": 3769,
      "Ġsite": 3770,
      "agement": 3771,
      "fill": 3772,
      "stru": 3773,
      "termin": 3774,
      "ĠPer": 3775,
      "Code": 3776,
      "Ġqueue": 3777,
      "Ġstri": 3778,
      "tuple": 3779,
      "gl": 3780,
      "Ġcomment": 3781,
      "utron": 3782,
      "how": 3783,
      "organ": 3784,
      "46": 3785,
      "erature": 3786,
      "Ġdefined": 3787,
      "arguments": 3788,
      "Ġpylint": 3789,
      "havi": 3790,
      "duc": 3791,
      "=_": 3792,
      "sure": 3793,
      "widget": 3794,
      "Ġuuid": 3795,
      "CP": 3796,
      "eve": 3797,
      "vari": 3798,
      "Ġ\"'": 3799,
      "Ġstack": 3800,
      "Block": 3801,
      "Ġless": 3802,
      "logging": 3803,
      "document": 3804,
      "ĠâĢĵ": 3805,
      "reshold": 3806,
      "Ġpoints": 3807,
      "Network": 3808,
      "short": 3809,
      "Ġexisting": 3810,
      "ism": 3811,
      "Ġremote": 3812,
      "utions": 3813,
      "Ġinstall": 3814,
      "Ġscope": 3815,
      "ĊĠĠĠĠĠĠĠĠĠĠĠĠĠĠĠĠĠĠĠĠĠĠĠĠĠĠĠĠĠĠĠĠĠĠĠĠĠĠ": 3816,
      "Ġexperi": 3817,
      "verbose": 3818,
      "Ġdone": 3819,
      "Ġschema": 3820,
      "Ġmetri": 3821,
      "Ġrelated": 3822,
      "Ġremo": 3823,
      "slug": 3824,
      "Count": 3825,
      "42": 3826,
      "Logger": 3827,
      "ANT": 3828,
      "adding": 3829,
      "Ġevents": 3830,
      "00000000": 3831,
      "Ġsocket": 3832,
      "ĠInter": 3833,
      "stderr": 3834,
      "posit": 3835,
      "tract": 3836,
      "Template": 3837,
      "Ġsl": 3838,
      "urs": 3839,
      "ĠBase": 3840,
      "ROM": 3841,
      "xa": 3842,
      "Ġusers": 3843,
      "aterial": 3844,
      "opts": 3845,
      "Boolean": 3846,
      "paths": 3847,
      "Ġsmall": 3848,
      "So": 3849,
      "fc": 3850,
      "Ġvol": 3851,
      "Ġgood": 3852,
      "uplic": 3853,
      "gor": 3854,
      "pb": 3855,
      "Ġassign": 3856,
      "Arg": 3857,
      "Ġdocumentation": 3858,
      "Ġalong": 3859,
      "Ġear": 3860,
      "Ġmade": 3861,
      "unittest": 3862,
      "Version": 3863,
      "ĠFile": 3864,
      "dent": 3865,
      "ished": 3866,
      "Ġgoogle": 3867,
      "ä¸": 3868,
      "Ġident": 3869,
      "iki": 3870,
      "__,": 3871,
      "feed": 3872,
      "PORT": 3873,
      "mac": 3874,
      "ips": 3875,
      ",\"": 3876,
      "Mem": 3877,
      "ERROR": 3878,
      "31": 3879,
      "ocument": 3880,
      "just": 3881,
      "USER": 3882,
      "github": 3883,
      "sq": 3884,
      "Ġsubprocess": 3885,
      "where": 3886,
      "reset": 3887,
      "ĠDo": 3888,
      "Mixin": 3889,
      "Action": 3890,
      "Ġhandler": 3891,
      ".'": 3892,
      "asure": 3893,
      "Ed": 3894,
      "migr": 3895,
      "series": 3896,
      "none": 3897,
      "ird": 3898,
      "Ġmeans": 3899,
      "ota": 3900,
      "ivers": 3901,
      "Ġstill": 3902,
      "ĠNotImplemented": 3903,
      "raft": 3904,
      "issue": 3905,
      "resources": 3906,
      "she": 3907,
      "xd": 3908,
      "lish": 3909,
      "Ġcannot": 3910,
      "scal": 3911,
      "Ġ11": 3912,
      "MPL": 3913,
      "Ġhead": 3914,
      "mes": 3915,
      "FL": 3916,
      "interval": 3917,
      "Ġ'{": 3918,
      "Ġstyle": 3919,
      "hand": 3920,
      "entication": 3921,
      "alt": 3922,
      "'^": 3923,
      "price": 3924,
      "modules": 3925,
      "ĠOptional": 3926,
      "Ġpower": 3927,
      "('--": 3928,
      "hook": 3929,
      "Ġelements": 3930,
      "rtype": 3931,
      "Ġsplit": 3932,
      "cv": 3933,
      "Ġtrack": 3934,
      "look": 3935,
      "repo": 3936,
      "share": 3937,
      "Ġrepresen": 3938,
      "]])": 3939,
      "Ġpolicy": 3940,
      "}.": 3941,
      "bucket": 3942,
      "alled": 3943,
      "')),": 3944,
      "Ġpk": 3945,
      "Point": 3946,
      "Ġcalcul": 3947,
      "norm": 3948,
      "cursor": 3949,
      "rece": 3950,
      "Ġterms": 3951,
      "Tests": 3952,
      "ĠĠĠĠĠĠĠĠĠĠĠĠĠĠĠ": 3953,
      "Ġ{})": 3954,
      "Ġrows": 3955,
      "control": 3956,
      "()))": 3957,
      "gative": 3958,
      "anal": 3959,
      "}'.": 3960,
      "ĠTypeError": 3961,
      "Ġsyn": 3962,
      "ertificate": 3963,
      "Ġ30": 3964,
      "Variable": 3965,
      "Ġpat": 3966,
      "rees": 3967,
      "scriptor": 3968,
      "owner": 3969,
      "Ġ\"--": 3970,
      "Ġoc": 3971,
      "aving": 3972,
      "mk": 3973,
      "Ġperiod": 3974,
      "70": 3975,
      "Ġcompute": 3976,
      "aff": 3977,
      "ilities": 3978,
      "subnet": 3979,
      "alle": 3980,
      "Number": 3981,
      "Ġgra": 3982,
      "Ġtr": 3983,
      "sleep": 3984,
      "Ġresearch": 3985,
      "meric": 3986,
      "AutoField": 3987,
      "trace": 3988,
      "Filter": 3989,
      "Ġbro": 3990,
      "Ġmod": 3991,
      "Part": 3992,
      "Update": 3993,
      "png": 3994,
      "sig": 3995,
      "Ġfig": 3996,
      "lation": 3997,
      "Ġcontainer": 3998,
      "([[": 3999,
      "Ġmissing": 4000,
      "summary": 4001,
      "Ġtoo": 4002,
      "Ġconvert": 4003,
      "Ġpool": 4004,
      "unch": 4005,
      "'re": 4006,
      "coord": 4007,
      "subscription": 4008,
      "Ġdriver": 4009,
      "Ġtags": 4010,
      "convert": 4011,
      "}/": 4012,
      "Ġrest": 4013,
      "uting": 4014,
      "Ġlibr": 4015,
      "IE": 4016,
      "ught": 4017,
      "Ġrelative": 4018,
      "rency": 4019,
      "Ġupdated": 4020,
      "Ġbo": 4021,
      "lan": 4022,
      "------------------------------------------------------------------------": 4023,
      "Ġcause": 4024,
      "Ġalways": 4025,
      "Ġexpect": 4026,
      "database": 4027,
      "Ġgenerated": 4028,
      "OK": 4029,
      "SA": 4030,
      "ression": 4031,
      "gger": 4032,
      "Ġdid": 4033,
      "aper": 4034,
      "router": 4035,
      "initial": 4036,
      "Ġinvalid": 4037,
      "ral": 4038,
      "Ġproblem": 4039,
      "reshape": 4040,
      "Token": 4041,
      "Ġbest": 4042,
      "gether": 4043,
      "ĠColumn": 4044,
      "Ġapplication": 4045,
      "Ġrunning": 4046,
      "simple": 4047,
      "UE": 4048,
      "dividual": 4049,
      "DER": 4050,
      "Session": 4051,
      "Ġfact": 4052,
      "Ġheight": 4053,
      "weights": 4054,
      "uler": 4055,
      "Ġincluding": 4056,
      "bad": 4057,
      "Tra": 4058,
      "ĠLe": 4059,
      "Ġresources": 4060,
      "Ġtrace": 4061,
      "INE": 4062,
      "Ġclose": 4063,
      "('-": 4064,
      "aster": 4065,
      "ĠTh": 4066,
      "Ġassociated": 4067,
      "Ġredirect": 4068,
      "Method": 4069,
      "remote": 4070,
      "Ġmulti": 4071,
      "ĠAuth": 4072,
      "track": 4073,
      "lass": 4074,
      "Ġrights": 4075,
      "Ġtensorflow": 4076,
      "ilar": 4077,
      "Ġconver": 4078,
      ")',": 4079,
      "Ġloop": 4080,
      "Returns": 4081,
      "Ġcorrespon": 4082,
      "ĠNew": 4083,
      "ĠHow": 4084,
      "endpoint": 4085,
      "Ġ'')": 4086,
      "filters": 4087,
      "SH": 4088,
      "reference": 4089,
      "orn": 4090,
      "Ġcore": 4091,
      "topic": 4092,
      "Ġher": 4093,
      "Dir": 4094,
      "fa": 4095,
      "Ġtraining": 4096,
      "gorith": 4097,
      "Ġbar": 4098,
      "DF": 4099,
      "ĠPRO": 4100,
      ")\",": 4101,
      "Ġ[(": 4102,
      "td": 4103,
      "expr": 4104,
      "Ġmuch": 4105,
      "Hel": 4106,
      "resses": 4107,
      "90": 4108,
      "sd": 4109,
      "Ġloss": 4110,
      "Spec": 4111,
      "tz": 4112,
      "sim": 4113,
      "rag": 4114,
      "Ġput": 4115,
      "Ġkind": 4116,
      "Ġactiv": 4117,
      "Output": 4118,
      "ĠUse": 4119,
      "land": 4120,
      "variables": 4121,
      "Label": 4122,
      "calls": 4123,
      "Ċĉĉĉĉĉĉ": 4124,
      "urls": 4125,
      "atio": 4126,
      "ĠĠĠĠĠĠĠĠĠĠ": 4127,
      "]):": 4128,
      "Ġflow": 4129,
      "ences": 4130,
      "Ġsw": 4131,
      "lig": 4132,
      "services": 4133,
      "Ġvalidate": 4134,
      "pare": 4135,
      "/'": 4136,
      "region": 4137,
      "Ġsimple": 4138,
      "Function": 4139,
      "Ġfinal": 4140,
      "alpha": 4141,
      ")\"": 4142,
      "valuate": 4143,
      "Ġbot": 4144,
      "Ġprevious": 4145,
      "ZE": 4146,
      "cons": 4147,
      "enum": 4148,
      "media": 4149,
      "Clo": 4150,
      "ifest": 4151,
      "ighb": 4152,
      "ĠST": 4153,
      "this": 4154,
      "ationship": 4155,
      "ose": 4156,
      "Ġinteger": 4157,
      "Ġjoin": 4158,
      "IGHT": 4159,
      "cb": 4160,
      "Ġsepar": 4161,
      "isk": 4162,
      "rence": 4163,
      "Ġchanges": 4164,
      "Many": 4165,
      "čĊĠĠĠĠĠĠĠĠĠĠĠĠĠĠĠĠĠĠĠ": 4166,
      "safe": 4167,
      "Ġcursor": 4168,
      "some": 4169,
      "angle": 4170,
      "Ġneeds": 4171,
      ")*": 4172,
      "Down": 4173,
      "Task": 4174,
      "ĠHT": 4175,
      "ĠThey": 4176,
      "Ġtimes": 4177,
      "chine": 4178,
      "voice": 4179,
      "TIME": 4180,
      "ever": 4181,
      "transform": 4182,
      "jor": 4183,
      "Int": 4184,
      "rot": 4185,
      "Ġ((": 4186,
      "tered": 4187,
      "subject": 4188,
      "precated": 4189,
      "many": 4190,
      "89": 4191,
      "Ġneeded": 4192,
      "Ġhass": 4193,
      "ilt": 4194,
      "Ġcredentials": 4195,
      "CS": 4196,
      "atten": 4197,
      "firm": 4198,
      "ah": 4199,
      "export": 4200,
      "Ġfeed": 4201,
      "pment": 4202,
      "ĠImport": 4203,
      "provider": 4204,
      "Ġlet": 4205,
      "components": 4206,
      "Ġmight": 4207,
      "Ġcommun": 4208,
      "Ġfeatures": 4209,
      "amount": 4210,
      "buf": 4211,
      "Ġbinary": 4212,
      "Len": 4213,
      "Ġsch": 4214,
      "rer": 4215,
      "Ġ_('": 4216,
      "Ġamount": 4217,
      "Ġrequire": 4218,
      "Ġaccept": 4219,
      "PUT": 4220,
      "Ġreceived": 4221,
      "__':": 4222,
      "testing": 4223,
      "ĠThese": 4224,
      "Format": 4225,
      "ius": 4226,
      "pg": 4227,
      "XXXX": 4228,
      "Ġcomplete": 4229,
      "BUG": 4230,
      "Read": 4231,
      "65": 4232,
      "ider": 4233,
      "component": 4234,
      "layers": 4235,
      "credentials": 4236,
      "Ġscale": 4237,
      "ĠThere": 4238,
      "Ġrepresent": 4239,
      "uest": 4240,
      "ench": 4241,
      "pository": 4242,
      "Ġve": 4243,
      "WARE": 4244,
      "controller": 4245,
      "Ġgroups": 4246,
      "Ġ[{": 4247,
      "FIG": 4248,
      "effect": 4249,
      "MM": 4250,
      "Ġpair": 4251,
      "Ġpaths": 4252,
      "vas": 4253,
      "Ġoccur": 4254,
      "ending": 4255,
      "ĠUp": 4256,
      "VIC": 4257,
      "umb": 4258,
      "One": 4259,
      "ãģ": 4260,
      "_,": 4261,
      "':('": 4262,
      "configuration": 4263,
      "utable": 4264,
      "DateTimeField": 4265,
      "(\"%": 4266,
      "ĠOpen": 4267,
      "dep": 4268,
      "SD": 4269,
      "attach": 4270,
      "mg": 4271,
      "OUT": 4272,
      "Ġ\"-": 4273,
      "MB": 4274,
      "Start": 4275,
      "font": 4276,
      "payload": 4277,
      "Ġdiff": 4278,
      "Ġregion": 4279,
      "ĠHTML": 4280,
      "cessed": 4281,
      "Tag": 4282,
      "tenant": 4283,
      "Ġdt": 4284,
      "Ġaround": 4285,
      "aries": 4286,
      "Ġplay": 4287,
      "azure": 4288,
      ".)": 4289,
      "PAR": 4290,
      "Ġabsolute": 4291,
      "eq": 4292,
      "iler": 4293,
      "Ġops": 4294,
      "Ġparts": 4295,
      "hs": 4296,
      "ital": 4297,
      "ety": 4298,
      "Process": 4299,
      "Device": 4300,
      "]],": 4301,
      "ef": 4302,
      "activ": 4303,
      "Ġperform": 4304,
      "Window": 4305,
      "Ġimportant": 4306,
      "ĠFound": 4307,
      "Ġrad": 4308,
      "ategy": 4309,
      "Ġcy": 4310,
      "Ġweight": 4311,
      "cfg": 4312,
      "Ġpayload": 4313,
      ")])": 4314,
      "ynam": 4315,
      "Ġactive": 4316,
      "stand": 4317,
      "dims": 4318,
      "Ġoutputs": 4319,
      "verify": 4320,
      "001": 4321,
      "drop": 4322,
      "pick": 4323,
      "ferences": 4324,
      "Ġprimary": 4325,
      "Ġallowed": 4326,
      "Cur": 4327,
      "ĠDict": 4328,
      "('%": 4329,
      "sync": 4330,
      "after": 4331,
      "WOR": 4332,
      "Ġsci": 4333,
      "flag": 4334,
      "exist": 4335,
      "dr": 4336,
      "ĠMock": 4337,
      "Ġstrings": 4338,
      "pted": 4339,
      "Ġforms": 4340,
      "Ġthree": 4341,
      ")).": 4342,
      "branch": 4343,
      "ulate": 4344,
      "Ċĉĉĉĉĉ": 4345,
      "Ġremain": 4346,
      "ately": 4347,
      "Ġmodify": 4348,
      "css": 4349,
      "atom": 4350,
      "ĊĊĊ": 4351,
      "Ġ_,": 4352,
      "Fl": 4353,
      "Qt": 4354,
      "eric": 4355,
      "Ġsaid": 4356,
      "false": 4357,
      "mm": 4358,
      "Ġcli": 4359,
      "Ġarch": 4360,
      "ĠLog": 4361,
      "Link": 4362,
      "ECT": 4363,
      "ĠConfig": 4364,
      "PER": 4365,
      "upload": 4366,
      "Ġretri": 4367,
      "grade": 4368,
      "mapping": 4369,
      "TIC": 4370,
      "ĠNotImplementedError": 4371,
      "video": 4372,
      "Ġexpression": 4373,
      ">'": 4374,
      "ĠĊĠĠĠĠĠĠĠ": 4375,
      "ats": 4376,
      "Ġwidget": 4377,
      "CR": 4378,
      "(\"/": 4379,
      "Ġlarge": 4380,
      "Attribute": 4381,
      "Ġstandard": 4382,
      "correct": 4383,
      "sess": 4384,
      "uce": 4385,
      "ĠIP": 4386,
      "Ġprovide": 4387,
      "ĠTime": 4388,
      "Color": 4389,
      "spect": 4390,
      "encoding": 4391,
      "ocab": 4392,
      "Ġresol": 4393,
      "days": 4394,
      "rf": 4395,
      "details": 4396,
      "WN": 4397,
      "ively": 4398,
      "stit": 4399,
      "ĊĠĠĠĠĠĠĠĠĠĠĠĠĠĠĠĠĠĠĠĠĠĠĠĠĠĠĠĠĠĠĠĠĠĠĠĠĠĠĠĠĠĠĠ": 4400,
      "ung": 4401,
      "parts": 4402,
      "period": 4403,
      "changed": 4404,
      "Ġequal": 4405,
      "Contain": 4406,
      "LECT": 4407,
      "metric": 4408,
      "factor": 4409,
      "available": 4410,
      "BO": 4411,
      "Module": 4412,
      "9999": 4413,
      "ond": 4414,
      "Ġknown": 4415,
      "Ġclasses": 4416,
      "complete": 4417,
      "Ġapply": 4418,
      "Ġplatform": 4419,
      "$',": 4420,
      "seconds": 4421,
      "Ġbox": 4422,
      "256": 4423,
      "CRE": 4424,
      "download": 4425,
      "Ġimages": 4426,
      "Ġflag": 4427,
      "Act": 4428,
      "Source": 4429,
      "draw": 4430,
      "Ġindices": 4431,
      "cording": 4432,
      "era": 4433,
      "Button": 4434,
      "rb": 4435,
      "Ġutil": 4436,
      "inv": 4437,
      "ÛĮ": 4438,
      "soft": 4439,
      "ĠSh": 4440,
      "\"][\"": 4441,
      "Ġlow": 4442,
      "backup": 4443,
      "Project": 4444,
      "oration": 4445,
      "Address": 4446,
      "ring": 4447,
      "reverse": 4448,
      "Back": 4449,
      "Ġbackend": 4450,
      "Ġcomponent": 4451,
      "counter": 4452,
      "atterns": 4453,
      "Ġspec": 4454,
      "AND": 4455,
      "outputs": 4456,
      "}\".": 4457,
      "center": 4458,
      "ressed": 4459,
      "\"].": 4460,
      "ĠMe": 4461,
      "lers": 4462,
      "Ġchunk": 4463,
      "Ġmemory": 4464,
      "protocol": 4465,
      "scribe": 4466,
      "ĠAnd": 4467,
      "Ġlife": 4468,
      "done": 4469,
      "Ġstdout": 4470,
      "updated": 4471,
      "****************": 4472,
      ".',": 4473,
      "DATA": 4474,
      "58": 4475,
      "ĠSub": 4476,
      "person": 4477,
      "ĠPAR": 4478,
      "Job": 4479,
      "Ġplan": 4480,
      "/>": 4481,
      "units": 4482,
      "Ġmaterial": 4483,
      "Ġuntil": 4484,
      "second": 4485,
      "conv": 4486,
      "parameter": 4487,
      "Ġtimestamp": 4488,
      "Ġflags": 4489,
      "added": 4490,
      "FORM": 4491,
      "outh": 4492,
      "history": 4493,
      "seed": 4494,
      "mitted": 4495,
      "New": 4496,
      "fd": 4497,
      "Ġbegin": 4498,
      "Ġcollections": 4499,
      "Ġ~": 4500,
      "Ġ</": 4501,
      "VERSION": 4502,
      "Ġhy": 4503,
      "End": 4504,
      "month": 4505,
      "Ġhapp": 4506,
      "Ġpattern": 4507,
      "pipeline": 4508,
      "alance": 4509,
      "gt": 4510,
      "sur": 4511,
      "Ġleast": 4512,
      "Ġ\"_": 4513,
      "istrib": 4514,
      "Ġscore": 4515,
      "Ġstatic": 4516,
      "ignore": 4517,
      "Ġstats": 4518,
      "Ag": 4519,
      "usage": 4520,
      "acc": 4521,
      "ĠEX": 4522,
      "contents": 4523,
      "ĠQu": 4524,
      "logical": 4525,
      "Ġdeser": 4526,
      "ĠBu": 4527,
      "Ġla": 4528,
      "comm": 4529,
      "Ġtech": 4530,
      "Ġwarnings": 4531,
      "ranch": 4532,
      "Ġwords": 4533,
      "Ġcategory": 4534,
      "rules": 4535,
      "menu": 4536,
      "gb": 4537,
      "istic": 4538,
      "roy": 4539,
      "zero": 4540,
      "lookup": 4541,
      "Ġpatch": 4542,
      "chunk": 4543,
      "iltin": 4544,
      "Ġ[])": 4545,
      "ested": 4546,
      "69": 4547,
      "omat": 4548,
      "Entry": 4549,
      "Ġbook": 4550,
      "Ġweights": 4551,
      "secret": 4552,
      "memory": 4553,
      "Default": 4554,
      ")'": 4555,
      "ancel": 4556,
      "Admin": 4557,
      "Ġdesc": 4558,
      "Ġbehavi": 4559,
      "ium": 4560,
      "Ġ\"__": 4561,
      "Gui": 4562,
      "UID": 4563,
      "ĠAS": 4564,
      "Ġchain": 4565,
      "Ġans": 4566,
      "cert": 4567,
      "tention": 4568,
      "Ġextract": 4569,
      "cheduler": 4570,
      "ĠAd": 4571,
      "INTER": 4572,
      "Ġpur": 4573,
      "ĠPo": 4574,
      "Ġhistory": 4575,
      "rank": 4576,
      "Ġextension": 4577,
      "Ġverify": 4578,
      "Failed": 4579,
      "=-": 4580,
      "qa": 4581,
      "OFT": 4582,
      "``.": 4583,
      "Ġlicense": 4584,
      "ules": 4585,
      "cos": 4586,
      "imal": 4587,
      "Ġotherwise": 4588,
      "+'": 4589,
      "Ġ_(\"": 4590,
      "54": 4591,
      "()),": 4592,
      "mbed": 4593,
      "Ġappe": 4594,
      "Ġindividual": 4595,
      "Ġclear": 4596,
      "Ġ14": 4597,
      "MIN": 4598,
      "COL": 4599,
      "Ġuseful": 4600,
      "stub": 4601,
      "pattern": 4602,
      "~~~~": 4603,
      "ĠAmeric": 4604,
      "Policy": 4605,
      "Ġ##": 4606,
      "Ġlibrary": 4607,
      "transport": 4608,
      "steps": 4609,
      "istant": 4610,
      "Ġimg": 4611,
      "Ġnotice": 4612,
      "redirect": 4613,
      "ym": 4614,
      "warn": 4615,
      "Ġpublished": 4616,
      "izes": 4617,
      "Ġkernel": 4618,
      "Ġfit": 4619,
      "Ġseconds": 4620,
      "Ġstudents": 4621,
      "Ġfilters": 4622,
      "############": 4623,
      "PRE": 4624,
      "azy": 4625,
      "Ġdraw": 4626,
      "Ġseries": 4627,
      "uggest": 4628,
      "plan": 4629,
      "Ġdisk": 4630,
      "cpu": 4631,
      "ĠFROM": 4632,
      "Ð°": 4633,
      "Ġtool": 4634,
      "ĊĠĠĠĠĠĠĠĠĠĠĠĠĠĠĠĠĠĠĠĠĠĠĠĠĠĠĠĠĠĠĠĠĠĠĠĠĠĠĠĠĠ": 4635,
      "ferred": 4636,
      "helper": 4637,
      "ĠLI": 4638,
      "ĠBy": 4639,
      "hip": 4640,
      "dom": 4641,
      "orth": 4642,
      "struction": 4643,
      "Ġsnapshot": 4644,
      "fmt": 4645,
      "Ġmapping": 4646,
      "Pol": 4647,
      "zz": 4648,
      "AGS": 4649,
      "getLogger": 4650,
      "accept": 4651,
      "gorithm": 4652,
      "lems": 4653,
      "(\"\\": 4654,
      "binary": 4655,
      "Ġdesign": 4656,
      "Ġadditional": 4657,
      "ems": 4658,
      "detail": 4659,
      "ĠMake": 4660,
      "Ġbuffer": 4661,
      "links": 4662,
      "stud": 4663,
      "Ġsignal": 4664,
      "extract": 4665,
      "okie": 4666,
      "Ġ50": 4667,
      "cision": 4668,
      "plain": 4669,
      "boot": 4670,
      "sha": 4671,
      "Ġexit": 4672,
      "GL": 4673,
      "Ġ1000": 4674,
      "Change": 4675,
      "edge": 4676,
      "ĠNum": 4677,
      "fixed": 4678,
      "Ġlower": 4679,
      "ado": 4680,
      "SO": 4681,
      "Ð¾": 4682,
      "inf": 4683,
      "proc": 4684,
      "depth": 4685,
      "Ġattrs": 4686,
      "Ġmonth": 4687,
      "EMA": 4688,
      "enter": 4689,
      "ming": 4690,
      "uide": 4691,
      "ĠNO": 4692,
      "Ġcoordin": 4693,
      "ĠBe": 4694,
      "Ġstudy": 4695,
      "andas": 4696,
      ",)": 4697,
      "Serializer": 4698,
      "rong": 4699,
      "Ġfalse": 4700,
      "identity": 4701,
      "ĠJSON": 4702,
      "\"},": 4703,
      "ĠRE": 4704,
      "apps": 4705,
      "DR": 4706,
      "istics": 4707,
      "private": 4708,
      "Ġcv": 4709,
      "Init": 4710,
      "const": 4711,
      "Ġcontents": 4712,
      "wards": 4713,
      "tasks": 4714,
      "You": 4715,
      "andid": 4716,
      "Ġpipeline": 4717,
      "signal": 4718,
      "Ġchanged": 4719,
      "84": 4720,
      "Ġfn": 4721,
      "Ġinv": 4722,
      "ĠHttpResponse": 4723,
      "ned": 4724,
      "Ġspecial": 4725,
      "riend": 4726,
      "URE": 4727,
      "contact": 4728,
      "Ġtransform": 4729,
      "Ġsetting": 4730,
      "distance": 4731,
      "Ġfont": 4732,
      "Ġ{},": 4733,
      "OFTWARE": 4734,
      "ĠRequest": 4735,
      "Pri": 4736,
      "Ġprofile": 4737,
      "Ġstates": 4738,
      ".\",": 4739,
      "Ġ13": 4740,
      "Ġnecess": 4741,
      "Ġgrow": 4742,
      "PS": 4743,
      "/',": 4744,
      "antity": 4745,
      "compat": 4746,
      "lap": 4747,
      "found": 4748,
      "ni": 4749,
      "Ġensure": 4750,
      "MAIN": 4751,
      "ctype": 4752,
      "switch": 4753,
      "instances": 4754,
      "roid": 4755,
      "Ġlin": 4756,
      "Ġfill": 4757,
      "Ġrate": 4758,
      "extension": 4759,
      "LL": 4760,
      "Ġturn": 4761,
      "ORS": 4762,
      "ĠRed": 4763,
      "Ġstorage": 4764,
      "....": 4765,
      "xxxx": 4766,
      "Ġdistribution": 4767,
      "Ġpermission": 4768,
      "ĊĠĠĠĠĠĠĠĠĊĠĠĠ": 4769,
      "Ġsens": 4770,
      "Ġstructure": 4771,
      "epoch": 4772,
      "']),": 4773,
      "super": 4774,
      "ĠNode": 4775,
      "note": 4776,
      "CA": 4777,
      "1234": 4778,
      "amma": 4779,
      "Ġrelease": 4780,
      "Ġagainst": 4781,
      "lev": 4782,
      "kind": 4783,
      "merge": 4784,
      "tected": 4785,
      "Ġcharacter": 4786,
      "urnal": 4787,
      "Ġnote": 4788,
      "Ġvia": 4789,
      "Ġgame": 4790,
      "abspath": 4791,
      "DATE": 4792,
      "aging": 4793,
      "Ġmember": 4794,
      ">\\": 4795,
      "lang": 4796,
      "upper": 4797,
      "Ġdistance": 4798,
      "arted": 4799,
      "returns": 4800,
      "Ġonce": 4801,
      "Ġbelow": 4802,
      "Ġri": 4803,
      "Ġarea": 4804,
      "single": 4805,
      "ĠFoundation": 4806,
      "Ne": 4807,
      "ga": 4808,
      "ĠKeyError": 4809,
      "player": 4810,
      "IR": 4811,
      "tty": 4812,
      "Ġinstances": 4813,
      "VENT": 4814,
      "Ġeas": 4815,
      "Layout": 4816,
      "Ġparsed": 4817,
      "Ġuses": 4818,
      "ĠTrans": 4819,
      "Ġoperations": 4820,
      "ACE": 4821,
      "ison": 4822,
      "Mode": 4823,
      "Ġalpha": 4824,
      "+\"": 4825,
      "Ġ//": 4826,
      "Max": 4827,
      "ĠAttribute": 4828,
      "95": 4829,
      "beta": 4830,
      "']))": 4831,
      "ROOT": 4832,
      "Ġvector": 4833,
      "eff": 4834,
      "72": 4835,
      "ANG": 4836,
      "Ġfinally": 4837,
      "Tree": 4838,
      "missing": 4839,
      "Ġ-------": 4840,
      "elif": 4841,
      "aves": 4842,
      ":\\": 4843,
      "IF": 4844,
      "transaction": 4845,
      "ĠResource": 4846,
      "]*": 4847,
      "holder": 4848,
      "Mat": 4849,
      "formed": 4850,
      "Ġvideo": 4851,
      "apply": 4852,
      "should": 4853,
      "syn": 4854,
      "ourse": 4855,
      "ables": 4856,
      "fname": 4857,
      "Ġurllib": 4858,
      "gg": 4859,
      "Red": 4860,
      "utc": 4861,
      "operation": 4862,
      "AUTH": 4863,
      "Ġcontrib": 4864,
      "Ġgot": 4865,
      "ious": 4866,
      "Ġda": 4867,
      "Level": 4868,
      "Ġfp": 4869,
      "fully": 4870,
      "Http": 4871,
      "Ġlight": 4872,
      "ueue": 4873,
      "ategories": 4874,
      "Plugin": 4875,
      "404": 4876,
      "cii": 4877,
      "external": 4878,
      "Ġfi": 4879,
      "regex": 4880,
      "iver": 4881,
      "Ġask": 4882,
      "Open": 4883,
      "Ġfixed": 4884,
      "Ġrequires": 4885,
      "Ġselected": 4886,
      "pred": 4887,
      "Ġ60": 4888,
      "'\",": 4889,
      "uint": 4890,
      "_{": 4891,
      "ĠCan": 4892,
      "duced": 4893,
      "Ġdue": 4894,
      "publish": 4895,
      "Ġleg": 4896,
      "Ġspecify": 4897,
      "Ġfoo": 4898,
      "Ġcommit": 4899,
      "cid": 4900,
      "mpt": 4901,
      "ART": 4902,
      "mag": 4903,
      "power": 4904,
      "Graph": 4905,
      "USE": 4906,
      "Ġjo": 4907,
      "ONE": 4908,
      "Ġpolling": 4909,
      "Ġgrid": 4910,
      "freq": 4911,
      "Ġsymp": 4912,
      "Ġfuture": 4913,
      "validation": 4914,
      "STATUS": 4915,
      "alias": 4916,
      "Ġcases": 4917,
      "running": 4918,
      "Search": 4919,
      "chemy": 4920,
      "servation": 4921,
      "ĠSOFTWARE": 4922,
      "Ġtak": 4923,
      "illa": 4924,
      "basic": 4925,
      "fp": 4926,
      "acity": 4927,
      "Ġlogin": 4928,
      "Ġair": 4929,
      "Pack": 4930,
      "entries": 4931,
      "Ġattemp": 4932,
      "cipi": 4933,
      "123": 4934,
      "cover": 4935,
      "udio": 4936,
      "System": 4937,
      "tern": 4938,
      "require": 4939,
      "Ġcare": 4940,
      "istent": 4941,
      "optional": 4942,
      "WS": 4943,
      "Ġpot": 4944,
      "cing": 4945,
      "kernel": 4946,
      "internal": 4947,
      "bt": 4948,
      "Ġfa": 4949,
      "using": 4950,
      "suffix": 4951,
      "deg": 4952,
      "span": 4953,
      "lab": 4954,
      "arange": 4955,
      "Ġzero": 4956,
      "ssl": 4957,
      "Ġlon": 4958,
      "Ġpercent": 4959,
      "ergy": 4960,
      "Build": 4961,
      "Ġbecome": 4962,
      "identifier": 4963,
      "Ġtokens": 4964,
      "Ġmedia": 4965,
      "team": 4966,
      "ĠOb": 4967,
      "Ġsig": 4968,
      "Ġ])": 4969,
      "73": 4970,
      "ja": 4971,
      "ading": 4972,
      "virtual": 4973,
      "Options": 4974,
      "eds": 4975,
      "ĠExt": 4976,
      "Ġendpoint": 4977,
      "Ġbad": 4978,
      "layout": 4979,
      "Port": 4980,
      "Ġtreat": 4981,
      "cesses": 4982,
      "Ġgl": 4983,
      "gments": 4984,
      "ĠNe": 4985,
      "Ver": 4986,
      "ITE": 4987,
      "uation": 4988,
      "SIZE": 4989,
      "Ġprop": 4990,
      "Ġ';": 4991,
      "permissions": 4992,
      "Be": 4993,
      "gno": 4994,
      "Ġpages": 4995,
      "Ġ32": 4996,
      "Ġbit": 4997,
      "Ġmanager": 4998,
      "ayment": 4999,
      "override": 5000,
      "Ġhel": 5001,
      "Ġten": 5002,
      "CONFIG": 5003,
      "Ġsomething": 5004,
      "pat": 5005,
      "Ġterm": 5006,
      "ole": 5007,
      "ĊĊĠĠĠĠĠĠĠĠĠĠĠĠĠĠĠĠĠĠĠ": 5008,
      "Ġoften": 5009,
      "acters": 5010,
      "Ġcat": 5011,
      "Ġestim": 5012,
      "ĠPl": 5013,
      "Min": 5014,
      "85": 5015,
      "Enum": 5016,
      "fixture": 5017,
      "Exec": 5018,
      "Ġoperator": 5019,
      "ront": 5020,
      "original": 5021,
      "symbol": 5022,
      "present": 5023,
      "Ġoptim": 5024,
      "ĠImage": 5025,
      "Delete": 5026,
      "NESS": 5027,
      "Ġfactor": 5028,
      "loaded": 5029,
      "Ġavoid": 5030,
      "Ġcallable": 5031,
      "':'": 5032,
      ".âĢĿ": 5033,
      "esc": 5034,
      "slice": 5035,
      "vector": 5036,
      "ystems": 5037,
      "Ġess": 5038,
      ")],": 5039,
      "('.": 5040,
      "lies": 5041,
      "uro": 5042,
      "Ġdep": 5043,
      "Ġtopic": 5044,
      "integer": 5045,
      "Ġinternal": 5046,
      "MAX": 5047,
      "constants": 5048,
      "liter": 5049,
      "Ġetc": 5050,
      "ĠMy": 5051,
      "Rout": 5052,
      "final": 5053,
      "ws": 5054,
      "Ġnoqa": 5055,
      "ĠField": 5056,
      "Sto": 5057,
      "ĠPre": 5058,
      "Ġlock": 5059,
      "partition": 5060,
      "Ġcompat": 5061,
      "Stream": 5062,
      "Ġlearn": 5063,
      "çļ": 5064,
      "Float": 5065,
      "rm": 5066,
      "ĠVer": 5067,
      "Ġlate": 5068,
      "Ġcondition": 5069,
      "FIX": 5070,
      "lier": 5071,
      "clus": 5072,
      "ĠLo": 5073,
      "REQU": 5074,
      "ysical": 5075,
      "coordin": 5076,
      "Ġvirt": 5077,
      "Ġregister": 5078,
      "ĠGroup": 5079,
      "Select": 5080,
      "sym": 5081,
      "BooleanField": 5082,
      "Iter": 5083,
      "tokens": 5084,
      "96": 5085,
      "Ġhuman": 5086,
      "ialization": 5087,
      "Reference": 5088,
      "keyword": 5089,
      "Ġtesting": 5090,
      "Types": 5091,
      "Ġì": 5092,
      "Bo": 5093,
      "cheme": 5094,
      "çļĦ": 5095,
      "(\\": 5096,
      "INFO": 5097,
      "ometry": 5098,
      "uplicate": 5099,
      "ULL": 5100,
      "ably": 5101,
      "ands": 5102,
      "crypt": 5103,
      "Ġder": 5104,
      "Ġgr": 5105,
      "(('": 5106,
      "permission": 5107,
      "Ġdev": 5108,
      "Ðµ": 5109,
      "pa": 5110,
      "ĠPO": 5111,
      "Sign": 5112,
      "ĠĊĠĠĠ": 5113,
      "deleted": 5114,
      "ĠReg": 5115,
      "axes": 5116,
      "mas": 5117,
      "Ġshare": 5118,
      "sqrt": 5119,
      ")\\": 5120,
      "reduce": 5121,
      "Ġmerge": 5122,
      "LEN": 5123,
      "requency": 5124,
      "delay": 5125,
      "HOST": 5126,
      "ynamic": 5127,
      "_.": 5128,
      "covery": 5129,
      "Ġcopyright": 5130,
      "ĠAR": 5131,
      "tegr": 5132,
      "GER": 5133,
      "Ġtw": 5134,
      "aaaa": 5135,
      "figs": 5136,
      "ĊĠĠĠĠĠĠĠĠĠĠĠĠĠĠĠĠĠĠĠĠĠĠĠĠĠĠĠĠĠĠĠĠĠĠĠĠĠĠĠĠĠĠ": 5137,
      "oriz": 5138,
      "ĠEng": 5139,
      "dag": 5140,
      "1000": 5141,
      "Ġtm": 5142,
      "Ġdat": 5143,
      "ensors": 5144,
      "sgi": 5145,
      "Ġmigrations": 5146,
      "schedule": 5147,
      "semb": 5148,
      "endswith": 5149,
      "><": 5150,
      "Ġnd": 5151,
      "ialog": 5152,
      "Thread": 5153,
      "JECT": 5154,
      "Ġide": 5155,
      "Cache": 5156,
      "uples": 5157,
      "ffic": 5158,
      "VICE": 5159,
      "Ġinf": 5160,
      "undle": 5161,
      "Ġexceptions": 5162,
      "ensity": 5163,
      "ULAR": 5164,
      "elem": 5165,
      "Ġedge": 5166,
      "dst": 5167,
      "Ġfew": 5168,
      "ĠModel": 5169,
      "Ġfolder": 5170,
      "Ġengine": 5171,
      "fficient": 5172,
      "Ġproto": 5173,
      "astype": 5174,
      "Ġbig": 5175,
      "ĠFIT": 5176,
      "Ð¸": 5177,
      "Warning": 5178,
      "čĊĉ": 5179,
      "!!": 5180,
      "Ġti": 5181,
      "enable": 5182,
      "atory": 5183,
      "Ref": 5184,
      "Ġsecurity": 5185,
      "Ġbetter": 5186,
      "Regist": 5187,
      "ĠInc": 5188,
      "Ġbutton": 5189,
      "67": 5190,
      "Ġlinks": 5191,
      "framework": 5192,
      "ĠBut": 5193,
      "ram": 5194,
      "Host": 5195,
      "serve": 5196,
      "Ġ[-": 5197,
      "ough": 5198,
      "Ut": 5199,
      "sparse": 5200,
      "][\"": 5201,
      "pn": 5202,
      "Ġqual": 5203,
      "Ġincluded": 5204,
      "Ġmaster": 5205,
      "SET": 5206,
      "ĠDis": 5207,
      "Ġprotocol": 5208,
      "defined": 5209,
      "vn": 5210,
      "Ġlearning": 5211,
      "defaults": 5212,
      "sumer": 5213,
      "wiki": 5214,
      "Ġyet": 5215,
      "LS": 5216,
      "hn": 5217,
      "CTION": 5218,
      "Ġdefaults": 5219,
      "cm": 5220,
      "ients": 5221,
      "dictions": 5222,
      "Ġnumbers": 5223,
      "ĠClient": 5224,
      "Ġedit": 5225,
      "reater": 5226,
      "yaml": 5227,
      "fire": 5228,
      "Ġtransport": 5229,
      "Ġparticular": 5230,
      "Ø¯": 5231,
      "aged": 5232,
      "Ab": 5233,
      "sn": 5234,
      "localhost": 5235,
      "Ġdst": 5236,
      "unct": 5237,
      "Ġremoved": 5238,
      "creen": 5239,
      "counts": 5240,
      "writer": 5241,
      "cols": 5242,
      "ĠOS": 5243,
      "POSE": 5244,
      "Ġcalls": 5245,
      "jobs": 5246,
      "Ġ25": 5247,
      "orical": 5248,
      "gregate": 5249,
      "cription": 5250,
      "duration": 5251,
      "_%": 5252,
      "Ġworks": 5253,
      "Ġdimension": 5254,
      "Ġproper": 5255,
      "Ġdr": 5256,
      "Ġnamed": 5257,
      "ĠâĢĺ": 5258,
      "els": 5259,
      "Ġthings": 5260,
      "Ġcorresponding": 5261,
      "cip": 5262,
      "43": 5263,
      "iversity": 5264,
      "Ġcir": 5265,
      "operations": 5266,
      "room": 5267,
      "()):": 5268,
      "Ġhig": 5269,
      "ĠApp": 5270,
      "pdf": 5271,
      "Ġdownload": 5272,
      "Ġkeyword": 5273,
      "Ġconstants": 5274,
      "diction": 5275,
      "hi": 5276,
      "Ġthink": 5277,
      "iteritems": 5278,
      "scape": 5279,
      "Ġacc": 5280,
      "Ġnova": 5281,
      "CI": 5282,
      "almost": 5283,
      "dirs": 5284,
      "Ġcer": 5285,
      "tection": 5286,
      "agic": 5287,
      "ĠMan": 5288,
      "DEBUG": 5289,
      "TEXT": 5290,
      "Ġhim": 5291,
      "learn": 5292,
      "servers": 5293,
      "Ġxrange": 5294,
      "generator": 5295,
      "98": 5296,
      "Ġunits": 5297,
      "Ġ-=": 5298,
      "ERCH": 5299,
      "URPOSE": 5300,
      "Ġcost": 5301,
      "Ġca": 5302,
      "Ġenergy": 5303,
      "shared": 5304,
      "answer": 5305,
      "tic": 5306,
      "Ġemp": 5307,
      "ERCHANT": 5308,
      "ĊĊĉĉ": 5309,
      "ĠCONF": 5310,
      "PY": 5311,
      "Ġable": 5312,
      "Opt": 5313,
      "MT": 5314,
      "blocks": 5315,
      "ĠPURPOSE": 5316,
      "Ġsess": 5317,
      "ifact": 5318,
      "SELECT": 5319,
      "Ġwritten": 5320,
      "ĠCO": 5321,
      "IGN": 5322,
      "([\"": 5323,
      "Ġshutil": 5324,
      ".\\": 5325,
      "Wrap": 5326,
      "see": 5327,
      "Target": 5328,
      "THER": 5329,
      "Ġdirectly": 5330,
      "[:-": 5331,
      "records": 5332,
      "amera": 5333,
      "pu": 5334,
      "vance": 5335,
      "cogn": 5336,
      "members": 5337,
      "68": 5338,
      "inder": 5339,
      "ĠIndex": 5340,
      "omen": 5341,
      "company": 5342,
      "allen": 5343,
      "Ġmembers": 5344,
      "Off": 5345,
      "Ġtab": 5346,
      "ĠPARTIC": 5347,
      "Ġcollect": 5348,
      "Ġanalysis": 5349,
      "free": 5350,
      "()]": 5351,
      "ĠImportError": 5352,
      "Ġretry": 5353,
      "requests": 5354,
      "ĠXML": 5355,
      "Interface": 5356,
      "ationError": 5357,
      "ERCHANTABILITY": 5358,
      "dro": 5359,
      "Ġrules": 5360,
      "________": 5361,
      "Argument": 5362,
      "timeError": 5363,
      "Ġprivate": 5364,
      "ĠPARTICULAR": 5365,
      "cio": 5366,
      "MODE": 5367,
      "SV": 5368,
      "MET": 5369,
      "writ": 5370,
      "functions": 5371,
      "alf": 5372,
      "Ġteam": 5373,
      "ĠEN": 5374,
      "ĠĠĠĠĠĠĠĠĠĠĠĠĠ": 5375,
      "../": 5376,
      "ĠOut": 5377,
      "partner": 5378,
      "Ġcommands": 5379,
      "worker": 5380,
      "Ġdefinition": 5381,
      "Profile": 5382,
      "basename": 5383,
      "ection": 5384,
      "area": 5385,
      "stone": 5386,
      "Length": 5387,
      "ĠJo": 5388,
      "Ġigno": 5389,
      "Ġexternal": 5390,
      "metrics": 5391,
      "Ġreserved": 5392,
      "Su": 5393,
      "__()": 5394,
      "Ġquestion": 5395,
      "MD": 5396,
      "It": 5397,
      "oid": 5398,
      "embed": 5399,
      "Ġ\"{": 5400,
      "Ġvm": 5401,
      "ATTR": 5402,
      "lots": 5403,
      "Ġrep": 5404,
      "Ġsummary": 5405,
      "Ġagent": 5406,
      "Ġworking": 5407,
      "elements": 5408,
      "128": 5409,
      "exclude": 5410,
      "choice": 5411,
      "Core": 5412,
      "Ġdeleted": 5413,
      "Ġseq": 5414,
      "ftime": 5415,
      "align": 5416,
      "condition": 5417,
      "Ġdays": 5418,
      "ĠAb": 5419,
      "Ġactually": 5420,
      "rappe": 5421,
      "\"\\": 5422,
      "modified": 5423,
      "plotlib": 5424,
      "Ġmaximum": 5425,
      "fast": 5426,
      "tion": 5427,
      "Record": 5428,
      "ĠCall": 5429,
      "organization": 5430,
      "Ġrecords": 5431,
      "ializers": 5432,
      "Ġimplementation": 5433,
      "ĠSome": 5434,
      "47": 5435,
      "cost": 5436,
      "Ġprevent": 5437,
      "ĠFree": 5438,
      "ĠMeta": 5439,
      "ĠOTHER": 5440,
      "screen": 5441,
      "Ġ>>": 5442,
      "acing": 5443,
      "Ġrespon": 5444,
      "ĠValid": 5445,
      "curs": 5446,
      "nment": 5447,
      "uni": 5448,
      "bro": 5449,
      "uses": 5450,
      "ury": 5451,
      "ĠFITNESS": 5452,
      "Ġentries": 5453,
      "Ġincrease": 5454,
      "abilities": 5455,
      "icon": 5456,
      "ĠMERCHANTABILITY": 5457,
      "Ġcombin": 5458,
      "Ġnecessary": 5459,
      "registry": 5460,
      "Ġmatches": 5461,
      "Ġdise": 5462,
      "Ġsever": 5463,
      "allel": 5464,
      "Ġsubnet": 5465,
      "Ġrepo": 5466,
      "strict": 5467,
      "Ġorigin": 5468,
      "SY": 5469,
      "Ġappropri": 5470,
      "gpu": 5471,
      "HERE": 5472,
      "methods": 5473,
      "otion": 5474,
      "Ġindent": 5475,
      "GR": 5476,
      "dp": 5477,
      "Ġsamples": 5478,
      "Ġencode": 5479,
      "Ġrouter": 5480,
      "hing": 5481,
      "before": 5482,
      "ascii": 5483,
      "Ġreset": 5484,
      "ĠEvent": 5485,
      "reason": 5486,
      "Ġelect": 5487,
      "iness": 5488,
      "hostname": 5489,
      "Storage": 5490,
      "Sp": 5491,
      "ade": 5492,
      "Ġ[('": 5493,
      "Ġproxy": 5494,
      "ĠConstruct": 5495,
      "ĊĠĠĠĠĠĠĠĠĠĠĠĠĠĠĠĠĠĠĠĠĠĠĠĠĠĠĠĠĠĠĠĠĠĠĠĠĠĠĠĠĠĠĠĠ": 5496,
      "percent": 5497,
      "ĠOne": 5498,
      "retry": 5499,
      "åı": 5500,
      "57": 5501,
      "Ġsuffix": 5502,
      "Ste": 5503,
      ":-": 5504,
      "Ġactions": 5505,
      "BASE": 5506,
      "Ġbranch": 5507,
      "ACT": 5508,
      "byte": 5509,
      "decor": 5510,
      "__.": 5511,
      "ĠAc": 5512,
      "Ġ))": 5513,
      "builder": 5514,
      "Ġface": 5515,
      "IX": 5516,
      "SP": 5517,
      "ints": 5518,
      "Ġsimilar": 5519,
      "41": 5520,
      "posed": 5521,
      "=',": 5522,
      "Ġplayer": 5523,
      "Direct": 5524,
      "iso": 5525,
      "chron": 5526,
      "Ġwx": 5527,
      "Ġ17": 5528,
      "Child": 5529,
      "Ġexecute": 5530,
      "lict": 5531,
      "2013": 5532,
      "squ": 5533,
      "cut": 5534,
      "GI": 5535,
      "bi": 5536,
      "gz": 5537,
      "Ø±": 5538,
      "Ġcurrently": 5539,
      "Ġ\"<": 5540,
      "Ġ(%": 5541,
      "Ġusage": 5542,
      "Ġenable": 5543,
      "ARY": 5544,
      "thers": 5545,
      "tick": 5546,
      "ulk": 5547,
      "boo": 5548,
      "mbols": 5549,
      "Ġfamily": 5550,
      "Var": 5551,
      "Layer": 5552,
      "templates": 5553,
      "Ġche": 5554,
      "alchemy": 5555,
      "currency": 5556,
      "Ġstderr": 5557,
      "assertNot": 5558,
      "reader": 5559,
      "rev": 5560,
      "Ġdig": 5561,
      "Python": 5562,
      "devices": 5563,
      "ĠRaises": 5564,
      "ario": 5565,
      "orch": 5566,
      "Ġinterest": 5567,
      "Ġbucket": 5568,
      "Ġimpro": 5569,
      "NING": 5570,
      "ĠAct": 5571,
      "high": 5572,
      "------": 5573,
      "Range": 5574,
      "hello": 5575,
      "ï¼": 5576,
      "DU": 5577,
      "Ġsupp": 5578,
      "packages": 5579,
      "sequ": 5580,
      "nb": 5581,
      "vered": 5582,
      "wall": 5583,
      "asis": 5584,
      "Program": 5585,
      "selected": 5586,
      "descriptor": 5587,
      "Ġdepth": 5588,
      "expand": 5589,
      "Ġbyte": 5590,
      "Ġfetch": 5591,
      "Ġround": 5592,
      "Ġhist": 5593,
      "orary": 5594,
      "Ġgive": 5595,
      "Work": 5596,
      "ĠCal": 5597,
      "Ġbasic": 5598,
      "Ġopts": 5599,
      "plt": 5600,
      "ye": 5601,
      "Ġdecl": 5602,
      "hidden": 5603,
      "Ġvalidation": 5604,
      "Schema": 5605,
      "deredDict": 5606,
      "Ġpositive": 5607,
      "eries": 5608,
      "Ġ24": 5609,
      "Ġrisk": 5610,
      "Ġ')": 5611,
      "program": 5612,
      "Ġstudent": 5613,
      "projects": 5614,
      "Pass": 5615,
      "ks": 5616,
      "car": 5617,
      "mous": 5618,
      "Ġrequested": 5619,
      "Ġsources": 5620,
      "\"}),": 5621,
      "Ap": 5622,
      "hist": 5623,
      "Ġbind": 5624,
      "activity": 5625,
      "plugins": 5626,
      "IBUT": 5627,
      "TextField": 5628,
      "ĠĊĠĠĠĠĠĠĠĠĠĠĠĠĠĠĠ": 5629,
      "LETE": 5630,
      "Ġsimp": 5631,
      "Ġviews": 5632,
      "Ġrank": 5633,
      "Ġenabled": 5634,
      "ollow": 5635,
      "channels": 5636,
      "enchmark": 5637,
      "Ġmodules": 5638,
      "Lib": 5639,
      "two": 5640,
      "Ġexport": 5641,
      "witter": 5642,
      "cf": 5643,
      "ĠUpdate": 5644,
      "hosts": 5645,
      "Ġlookup": 5646,
      "Volume": 5647,
      "Ġdecor": 5648,
      "Ġ':": 5649,
      "sphinx": 5650,
      "Ġfra": 5651,
      "Flow": 5652,
      "Ġatom": 5653,
      "iling": 5654,
      "predict": 5655,
      "NE": 5656,
      "Ġfood": 5657,
      "Ġcharacters": 5658,
      "Ġepoch": 5659,
      "ĠLanguage": 5660,
      "Ġassume": 5661,
      "Ġbus": 5662,
      "ĠIs": 5663,
      "extensions": 5664,
      "Pool": 5665,
      "Ġservices": 5666,
      "fact": 5667,
      "begin": 5668,
      "Ġir": 5669,
      "FE": 5670,
      "->": 5671,
      "Ġcontact": 5672,
      "LED": 5673,
      "Can": 5674,
      "eno": 5675,
      "Ġignored": 5676,
      "vest": 5677,
      "Ġteach": 5678,
      "\":\"": 5679,
      "Ġnorm": 5680,
      "pub": 5681,
      "LOW": 5682,
      "escape": 5683,
      "ĠFe": 5684,
      "Ġboolean": 5685,
      "Ġbehavior": 5686,
      "RIGHT": 5687,
      "Ass": 5688,
      "NOT": 5689,
      "ess": 5690,
      "Ġdrop": 5691,
      "Ġcross": 5692,
      "adcast": 5693,
      "flush": 5694,
      "Ġcsv": 5695,
      "Ġcountry": 5696,
      "zilla": 5697,
      "-----": 5698,
      "Document": 5699,
      "Order": 5700,
      "}'": 5701,
      "urther": 5702,
      "Ġanswer": 5703,
      "Ġunderstand": 5704,
      "127": 5705,
      "BE": 5706,
      "000000": 5707,
      "Ġtransaction": 5708,
      ",))": 5709,
      "Bad": 5710,
      "aring": 5711,
      "Ġmus": 5712,
      "Ġhard": 5713,
      "Ġregular": 5714,
      "Ġmetric": 5715,
      "lood": 5716,
      "Ġ{}\".": 5717,
      "ĠStat": 5718,
      "ipv": 5719,
      "Ġnever": 5720,
      "ality": 5721,
      "Ġwin": 5722,
      "Ġgenerator": 5723,
      "ĠMet": 5724,
      "============": 5725,
      "ĊĠĠĠĠĠĠĠĠĠĠĠĠĠĠĠĠĠĠĠĠĠĠĠĠĠĠĠĠĠĠĠĠĠĠĠĠĠĠĠĠĠĠĠĠĠĠĠ": 5726,
      "================================================================": 5727,
      "ros": 5728,
      "Ġdelta": 5729,
      "volution": 5730,
      "Ġautomat": 5731,
      "utation": 5732,
      "curacy": 5733,
      "asset": 5734,
      "63": 5735,
      "Row": 5736,
      "quote": 5737,
      ">',": 5738,
      "revision": 5739,
      "Ġvirtual": 5740,
      "////////": 5741,
      "vec": 5742,
      "SQL": 5743,
      "Ġaffect": 5744,
      "ctxt": 5745,
      "push": 5746,
      "mak": 5747,
      "browser": 5748,
      "sorted": 5749,
      "\"]:": 5750,
      "chan": 5751,
      "Ġcells": 5752,
      "500": 5753,
      "GB": 5754,
      "ĠPh": 5755,
      "ony": 5756,
      "Ġinterval": 5757,
      "/\"": 5758,
      "Ġactivity": 5759,
      "400": 5760,
      "rd": 5761,
      "vey": 5762,
      "ashboard": 5763,
      "ards": 5764,
      "Parameter": 5765,
      "Ġargparse": 5766,
      "middleware": 5767,
      "Ġdevelopment": 5768,
      "Ġattach": 5769,
      "operator": 5770,
      "Ġweek": 5771,
      "ventory": 5772,
      "ĠAttributeError": 5773,
      "library": 5774,
      "pages": 5775,
      "Application": 5776,
      "Ġlat": 5777,
      "Ġsaved": 5778,
      "uous": 5779,
      "based": 5780,
      "Ġdeg": 5781,
      "Ġaverage": 5782,
      "Ġprev": 5783,
      "Ġupload": 5784,
      "Sequence": 5785,
      "||": 5786,
      "Ġlit": 5787,
      "Web": 5788,
      "ĠHowever": 5789,
      "Ġ{}'.": 5790,
      "CLUD": 5791,
      "rist": 5792,
      "processing": 5793,
      "Ġ?": 5794,
      "dense": 5795,
      "Ġps": 5796,
      "conom": 5797,
      "__\":": 5798,
      "ĊĠĠĠĠĠĠĠĠĠĠĠĠĠĠĠĠĠĠĠĠĠĠĠĠĠĠĠĠĠĠĠĠĠĠĠĠĠĠĠĠĠĠĠĠĠ": 5799,
      "oring": 5800,
      "Ent": 5801,
      "scan": 5802,
      "Ġland": 5803,
      "CD": 5804,
      "Ġconstraint": 5805,
      "origin": 5806,
      "Scal": 5807,
      "Ġexact": 5808,
      "Ġseed": 5809,
      "Top": 5810,
      "failed": 5811,
      "sens": 5812,
      "TypeError": 5813,
      "tables": 5814,
      "termine": 5815,
      "DOMAIN": 5816,
      "'d": 5817,
      "ĠÐ": 5818,
      "erm": 5819,
      "Ġpix": 5820,
      "ectors": 5821,
      "(%": 5822,
      "OB": 5823,
      "Ġvarious": 5824,
      "grams": 5825,
      "commands": 5826,
      "specific": 5827,
      "aign": 5828,
      "gateway": 5829,
      "Ġcomplex": 5830,
      "assistant": 5831,
      "Ġoverride": 5832,
      "FT": 5833,
      "Header": 5834,
      "LA": 5835,
      "dec": 5836,
      "progress": 5837,
      "Ġshared": 5838,
      "cached": 5839,
      "Ġabs": 5840,
      "Ġage": 5841,
      "periment": 5842,
      "loyment": 5843,
      "ĠNOTE": 5844,
      "RECT": 5845,
      "Identifier": 5846,
      "tar": 5847,
      "âĢĶ": 5848,
      "Ġaccording": 5849,
      "Post": 5850,
      "Ġtoday": 5851,
      "pus": 5852,
      "ĠText": 5853,
      "nova": 5854,
      "hood": 5855,
      "STRING": 5856,
      "sep": 5857,
      "Ġpract": 5858,
      "Ġpredict": 5859,
      "Ġ199": 5860,
      "Ġmedi": 5861,
      "cla": 5862,
      "Ġrepe": 5863,
      "Ġdirection": 5864,
      "Ġ2015": 5865,
      "ĠĠĠĠĠĠĠĠĠĠĠĠĠĠ": 5866,
      "stock": 5867,
      "Ġimplemented": 5868,
      "setter": 5869,
      "}\"": 5870,
      "Ġevalu": 5871,
      "Ġseen": 5872,
      "Ġast": 5873,
      "ĠError": 5874,
      "signature": 5875,
      "ĠForm": 5876,
      "strings": 5877,
      "atural": 5878,
      "Ġty": 5879,
      "Ġidentifier": 5880,
      "tho": 5881,
      "Ġspecies": 5882,
      "tol": 5883,
      "ĠCONTR": 5884,
      "Ġ--------------------------------": 5885,
      "ina": 5886,
      "training": 5887,
      "forward": 5888,
      "PU": 5889,
      "Ġord": 5890,
      "ially": 5891,
      "ĠĊĠĠĠĠĠĠĠĠĠĠĠ": 5892,
      "Ġstored": 5893,
      "Ġtasks": 5894,
      "IV": 5895,
      "ÑĤ": 5896,
      "shift": 5897,
      "CLUDING": 5898,
      "Ġdeserialized": 5899,
      "ĠDEFAULT": 5900,
      "ied": 5901,
      "Parse": 5902,
      "_)": 5903,
      "Ġinside": 5904,
      "JSON": 5905,
      "Rel": 5906,
      "structure": 5907,
      "Ġhope": 5908,
      "Ġbackup": 5909,
      "concat": 5910,
      "52": 5911,
      "flavor": 5912,
      "Ġproblems": 5913,
      "Ġrot": 5914,
      "yy": 5915,
      "assertAll": 5916,
      "targets": 5917,
      "ĠArg": 5918,
      "support": 5919,
      "ĠFl": 5920,
      "Ġrecent": 5921,
      "Ġappropriate": 5922,
      "XML": 5923,
      "ĠService": 5924,
      "Ġshell": 5925,
      ")+": 5926,
      "ĠUniversity": 5927,
      "ĠLoc": 5928,
      "Ġpie": 5929,
      "53": 5930,
      "Callback": 5931,
      "ĠTra": 5932,
      "rec": 5933,
      "Ġsocial": 5934,
      "lid": 5935,
      "endar": 5936,
      "addon": 5937,
      "logs": 5938,
      "iles": 5939,
      "Ġgeneral": 5940,
      "vide": 5941,
      "helpers": 5942,
      "')(": 5943,
      ")(": 5944,
      "Ġessay": 5945,
      "83": 5946,
      "VID": 5947,
      "}\\": 5948,
      "Ġqui": 5949,
      "park": 5950,
      "irt": 5951,
      "Ġflat": 5952,
      "Ġequ": 5953,
      "></": 5954,
      "Ġ255": 5955,
      "ĠWARRANTY": 5956,
      "ĠPart": 5957,
      "Middleware": 5958,
      "break": 5959,
      "DataFrame": 5960,
      "astic": 5961,
      "ban": 5962,
      "')]": 5963,
      "evaluate": 5964,
      "console": 5965,
      "Write": 5966,
      "Ġconstruct": 5967,
      "ĠTensor": 5968,
      "Ġsafe": 5969,
      "dapt": 5970,
      "DIS": 5971,
      "ĠDes": 5972,
      "ills": 5973,
      ">`": 5974,
      "deserialize": 5975,
      "']\"}),": 5976,
      "ãĥ": 5977,
      "Ġinsert": 5978,
      "sr": 5979,
      "ãĤ": 5980,
      "setUp": 5981,
      "threshold": 5982,
      "*(": 5983,
      "Ġsuggest": 5984,
      "rive": 5985,
      "87": 5986,
      "diag": 5987,
      "emon": 5988,
      "ĠNumber": 5989,
      "ĠExample": 5990,
      "ĠCode": 5991,
      "Ġvisit": 5992,
      "Tool": 5993,
      "jump": 5994,
      "Stack": 5995,
      "blob": 5996,
      "Ġsel": 5997,
      "Ġalias": 5998,
      "ISE": 5999,
      "ä»": 6000,
      "Ġconst": 6001,
      "unknown": 6002,
      "optim": 6003,
      "ĠQtGui": 6004,
      "ĊĊĊĠĠĠĠĠĠĠ": 6005,
      "Author": 6006,
      "ĠProject": 6007,
      "kely": 6008,
      "indent": 6009,
      "({\"": 6010,
      "=[\"": 6011,
      "Ġchoices": 6012,
      "ev": 6013,
      "codes": 6014,
      "Ph": 6015,
      "Protocol": 6016,
      "Ġsleep": 6017,
      "ĠDate": 6018,
      "Ġacross": 6019,
      "Ġschool": 6020,
      "px": 6021,
      "Ġ2014": 6022,
      "fun": 6023,
      "expression": 6024,
      "Fail": 6025,
      "Ġappend": 6026,
      "sually": 6027,
      "Ġcenter": 6028,
      "Ġmp": 6029,
      "requires": 6030,
      "Ġshown": 6031,
      "MAP": 6032,
      "ĠAlso": 6033,
      ".%": 6034,
      "Ġgreat": 6035,
      "pix": 6036,
      "supported": 6037,
      "href": 6038,
      "Mon": 6039,
      "Ġsparse": 6040,
      "Ġdiag": 6041,
      "apter": 6042,
      "Ġslice": 6043,
      "Operations": 6044,
      "Ġpast": 6045,
      "udo": 6046,
      "Location": 6047,
      "floating": 6048,
      "specs": 6049,
      "ĠRuntimeError": 6050,
      "READ": 6051,
      "Ġsymbol": 6052,
      "Ġalign": 6053,
      "rowse": 6054,
      "Wrapper": 6055,
      "Ġexpr": 6056,
      "Ġprice": 6057,
      "Edit": 6058,
      "CONT": 6059,
      "Ġsteps": 6060,
      "Operation": 6061,
      "=\"\"": 6062,
      "bon": 6063,
      "åĪ": 6064,
      "Ġenough": 6065,
      "\"'": 6066,
      "ĠOnly": 6067,
      "My": 6068,
      "Ġcounter": 6069,
      "(\"\"\"": 6070,
      "gf": 6071,
      "Ġlevels": 6072,
      "collect": 6073,
      "Ġfailure": 6074,
      "irect": 6075,
      "Ġfour": 6076,
      "Ġstatement": 6077,
      "ĠObject": 6078,
      "cepted": 6079,
      "mgmt": 6080,
      "allet": 6081,
      "Ġsm": 6082,
      "ffero": 6083,
      "pad": 6084,
      "ĠAffero": 6085,
      "Ġmatching": 6086,
      "Ġmakes": 6087,
      "']\",": 6088,
      "ĠInit": 6089,
      "Queue": 6090,
      "Width": 6091,
      "Op": 6092,
      "runner": 6093,
      "mong": 6094,
      "ĠDB": 6095,
      "Ġexecution": 6096,
      "Ġowner": 6097,
      "Ġtenant": 6098,
      "review": 6099,
      "abstract": 6100,
      "icles": 6101,
      "Controller": 6102,
      "čĊĠĠĠĠĠĠĠĠĠĠĠĠĠĠĠĠĠĠĠĠĠĠĠ": 6103,
      "Ġembed": 6104,
      "xtures": 6105,
      "culate": 6106,
      "ĠÙ": 6107,
      "ĠTH": 6108,
      "dm": 6109,
      "Ġeduc": 6110,
      "Ġintegr": 6111,
      "71": 6112,
      "``,": 6113,
      "icrosoft": 6114,
      "ĠIO": 6115,
      "ĠResponse": 6116,
      "latest": 6117,
      "Script": 6118,
      "java": 6119,
      "sock": 6120,
      "wrapper": 6121,
      "ĠUSE": 6122,
      "Ġseveral": 6123,
      "Ġupdates": 6124,
      "ae": 6125,
      "refresh": 6126,
      "Ġcertain": 6127,
      "linear": 6128,
      "Ġothers": 6129,
      "lyph": 6130,
      "Ġdump": 6131,
      "ĠAss": 6132,
      "Ġprogress": 6133,
      "Ġrepr": 6134,
      "]).": 6135,
      "Sup": 6136,
      "ĠOther": 6137,
      "double": 6138,
      "contin": 6139,
      "panel": 6140,
      "Ġmenu": 6141,
      "Ġbuilt": 6142,
      "Configuration": 6143,
      "Ge": 6144,
      "Ġitself": 6145,
      "ORY": 6146,
      "scores": 6147,
      "Ġpadding": 6148,
      "unpack": 6149,
      "Ġtyp": 6150,
      "ĠDjango": 6151,
      "herit": 6152,
      "='',": 6153,
      "REQUEST": 6154,
      "Ġeval": 6155,
      "Ġ).": 6156,
      "strument": 6157,
      "Ġprom": 6158,
      "Ġ%}": 6159,
      "Ġdefine": 6160,
      "Ġce": 6161,
      "ayers": 6162,
      "lon": 6163,
      "HEAD": 6164,
      "Ġsync": 6165,
      "dispatch": 6166,
      "rum": 6167,
      "Ġrelationship": 6168,
      "Ġ------------------------------------------------------------------------": 6169,
      "Ġpublish": 6170,
      "boolean": 6171,
      "Ġts": 6172,
      "')[": 6173,
      "Ġzone": 6174,
      "VM": 6175,
      "ners": 6176,
      "ctor": 6177,
      ",âĢĿ": 6178,
      "scriptions": 6179,
      "ĠWindow": 6180,
      "'\"": 6181,
      "editor": 6182,
      "sin": 6183,
      "Def": 6184,
      "mesh": 6185,
      "Ġsurface": 6186,
      "ĠSystem": 6187,
      "EM": 6188,
      "Params": 6189,
      "############################################################################": 6190,
      "Ġwrapper": 6191,
      "Ġfall": 6192,
      "Ġdestination": 6193,
      "environment": 6194,
      "ales": 6195,
      "ledge": 6196,
      "Ġchecks": 6197,
      "zen": 6198,
      "Ġsay": 6199,
      "cred": 6200,
      "Ret": 6201,
      "Ġ\"\",": 6202,
      "sender": 6203,
      "ĠState": 6204,
      "comments": 6205,
      "Ġearly": 6206,
      "(\"-": 6207,
      "ering": 6208,
      "Ġtimedelta": 6209,
      "cipient": 6210,
      "fr": 6211,
      "Ġcome": 6212,
      "warnings": 6213,
      "yes": 6214,
      "Ġdec": 6215,
      "yncio": 6216,
      "dk": 6217,
      "Ġdeal": 6218,
      "Ġallows": 6219,
      "versions": 6220,
      "avg": 6221,
      "RR": 6222,
      "oney": 6223,
      "inner": 6224,
      "Ġexplicit": 6225,
      "ratio": 6226,
      "initializer": 6227,
      "Ġpickle": 6228,
      "SL": 6229,
      "ĠSup": 6230,
      "Ġprovides": 6231,
      "bus": 6232,
      "Ġctypes": 6233,
      "Øª": 6234,
      "Ġtakes": 6235,
      "networks": 6236,
      "illi": 6237,
      "ndarray": 6238,
      "Ġproducts": 6239,
      "Ġ\")": 6240,
      "Ġfix": 6241,
      "62": 6242,
      "ploration": 6243,
      "Ġdescrib": 6244,
      "pending": 6245,
      "Ġ64": 6246,
      "pkg": 6247,
      "Ġdetermin": 6248,
      "ĠRead": 6249,
      "archive": 6250,
      "quival": 6251,
      "Ġliter": 6252,
      "constraint": 6253,
      "catalog": 6254,
      "bat": 6255,
      "more": 6256,
      "Ġdivision": 6257,
      "CLASS": 6258,
      "deep": 6259,
      "roles": 6260,
      "Ġtermin": 6261,
      "Ġmaking": 6262,
      ")')": 6263,
      "Ġ\"+": 6264,
      "Ġ40": 6265,
      "Ġ';',": 6266,
      "Ġreduce": 6267,
      "Ġio": 6268,
      "MAGE": 6269,
      "\\'": 6270,
      "Cal": 6271,
      "ians": 6272,
      "fits": 6273,
      "Ġdetermine": 6274,
      "prev": 6275,
      "Ġ2012": 6276,
      "Ġvals": 6277,
      "rollment": 6278,
      "cookie": 6279,
      "Ġexclude": 6280,
      "Ġdevices": 6281,
      "ĠDA": 6282,
      "2014": 6283,
      "SU": 6284,
      "94": 6285,
      "oom": 6286,
      "Ġthreading": 6287,
      "allowed": 6288,
      "Ġpartition": 6289,
      "Ġdecode": 6290,
      "âĢľ": 6291,
      "IMIT": 6292,
      "Bar": 6293,
      "Ġkw": 6294,
      "phone": 6295,
      "ametri": 6296,
      "Ġfar": 6297,
      "visible": 6298,
      "submit": 6299,
      "Ġrepresentation": 6300,
      "Ġmodified": 6301,
      "Ġes": 6302,
      "Ġmeasure": 6303,
      "Ġglob": 6304,
      "Ġcomponents": 6305,
      "Ġconsider": 6306,
      "ĠClo": 6307,
      "Ġcreating": 6308,
      "Ġorganization": 6309,
      "']]": 6310,
      "Optional": 6311,
      "lying": 6312,
      "Ġ2013": 6313,
      "æľ": 6314,
      "asing": 6315,
      "ĠInvalid": 6316,
      "APP": 6317,
      "lt": 6318,
      "dc": 6319,
      "ĊĠĠĠĠĠĠĠĠĠĠĠĠĠĠĠĠĠĠĠĠĠĠĠĠĠĠĠĠĠĠĠĠĠĠĠĠĠĠĠĠĠĠĠĠĠĠ": 6320,
      "Ġblocks": 6321,
      "FLAGS": 6322,
      "97": 6323,
      "notify": 6324,
      "sli": 6325,
      "Ġev": 6326,
      "ĠCOP": 6327,
      "Sc": 6328,
      "isation": 6329,
      "theme": 6330,
      "Custom": 6331,
      "Ġfoc": 6332,
      "Ġhref": 6333,
      "bounded": 6334,
      "Ġarticle": 6335,
      "Access": 6336,
      "PT": 6337,
      "prepare": 6338,
      "oter": 6339,
      "xff": 6340,
      "Ġreader": 6341,
      "Ġcoord": 6342,
      "PES": 6343,
      "retri": 6344,
      "loader": 6345,
      "inary": 6346,
      "Ġforward": 6347,
      "ano": 6348,
      "('<": 6349,
      "ĠExamples": 6350,
      "Keys": 6351,
      "student": 6352,
      "obs": 6353,
      "NN": 6354,
      "Settings": 6355,
      "ĠSE": 6356,
      "Ġpandas": 6357,
      "Ġclick": 6358,
      "AME": 6359,
      "Mis": 6360,
      "sage": 6361,
      "Series": 6362,
      "501": 6363,
      "Ġtargets": 6364,
      "Url": 6365,
      "dio": 6366,
      "dns": 6367,
      "Ġraised": 6368,
      "Store": 6369,
      "ĠCor": 6370,
      "flatten": 6371,
      "Ġrepresenting": 6372,
      "ĠLIMIT": 6373,
      "\"})": 6374,
      "Ġscreen": 6375,
      "Ġnegative": 6376,
      "Ġ'#": 6377,
      "Ġgoing": 6378,
      "WORD": 6379,
      "Member": 6380,
      "Ġscipy": 6381,
      "blue": 6382,
      "olds": 6383,
      "strftime": 6384,
      "Ġfo": 6385,
      "ĠGoogle": 6386,
      "Ġ\":": 6387,
      "('_": 6388,
      "ĠSpeci": 6389,
      "Obj": 6390,
      "ERS": 6391,
      ":])": 6392,
      "edges": 6393,
      "Ġprovider": 6394,
      "Email": 6395,
      "Ġarr": 6396,
      "qty": 6397,
      "named": 6398,
      "Container": 6399,
      "latex": 6400,
      "WE": 6401,
      "usters": 6402,
      "incip": 6403,
      "dependent": 6404,
      "Ġreading": 6405,
      "\"][": 6406,
      "(_(\"": 6407,
      "ĠWh": 6408,
      "Ġtraceback": 6409,
      "Match": 6410,
      "Ġfname": 6411,
      "Ġ'{}": 6412,
      "æĸ": 6413,
      "Ġwhole": 6414,
      "selection": 6415,
      "Ġmag": 6416,
      "===": 6417,
      "ĠWeb": 6418,
      "AX": 6419,
      "Over": 6420,
      "expi": 6421,
      "Ġsegment": 6422,
      "Ġndarray": 6423,
      "segment": 6424,
      "subprocess": 6425,
      "Ġnullable": 6426,
      "realm": 6427,
      "ĠCOPY": 6428,
      "handlers": 6429,
      "Ġserializer": 6430,
      "Ġdocuments": 6431,
      "Ġversions": 6432,
      "Ġmatplotlib": 6433,
      "wsgi": 6434,
      "destination": 6435,
      "ĠOper": 6436,
      "cod": 6437,
      "ifications": 6438,
      "Ġ404": 6439,
      "Ġtz": 6440,
      "Ġaxes": 6441,
      "ĊĠĠĠĠĠĠĠĠĠĠĠĠĊĠĠĠĠĠĠĠĠĠĠĠ": 6442,
      "avi": 6443,
      "Ġ()": 6444,
      "ising": 6445,
      "xs": 6446,
      "sources": 6447,
      "decl": 6448,
      "ysql": 6449,
      "EMAIL": 6450,
      "ali": 6451,
      "setdefault": 6452,
      "Ġmajor": 6453,
      "Names": 6454,
      "mul": 6455,
      "Ġneutron": 6456,
      "Ġtar": 6457,
      "pet": 6458,
      "Ġmetrics": 6459,
      "serializer": 6460,
      "mails": 6461,
      "51": 6462,
      "pm": 6463,
      "Ġtools": 6464,
      "92": 6465,
      "Ġreally": 6466,
      "Ġworker": 6467,
      "Ġred": 6468,
      "Ġsolution": 6469,
      "ĠCommand": 6470,
      "IZ": 6471,
      "Ġpaper": 6472,
      "agicMock": 6473,
      "une": 6474,
      "derer": 6475,
      "Ġhaving": 6476,
      "Ġisn": 6477,
      "Ġgu": 6478,
      "Ġbeli": 6479,
      "Ġconv": 6480,
      "Ġenviron": 6481,
      "2012": 6482,
      "ĠIMP": 6483,
      "kit": 6484,
      "contains": 6485,
      "Close": 6486,
      "{{": 6487,
      "signed": 6488,
      "Ġfactory": 6489,
      "There": 6490,
      "lec": 6491,
      "CODE": 6492,
      "Exist": 6493,
      "ritical": 6494,
      "urch": 6495,
      "ĠCourse": 6496,
      "Ġmac": 6497,
      "Option": 6498,
      "ĠAD": 6499,
      "Driver": 6500,
      "los": 6501,
      "viders": 6502,
      "gu": 6503,
      "Ġment": 6504,
      "reet": 6505,
      "Ġregex": 6506,
      "pies": 6507,
      "crete": 6508,
      "++++": 6509,
      "LES": 6510,
      "ble": 6511,
      "att": 6512,
      "ENCE": 6513,
      "sessment": 6514,
      "Import": 6515,
      "ĊĠĠĠĠĠĠĠĠĠĠĠĠĠĠĠĠĠĠĠĠĠĠĠĠĠĠĠĠĠĠĠĠĠĠĠĠĠĠĠĠĠĠĠĠĠĠĠĠĠĠĠĠĠĠĠĠĠĠĠĠĠĠĠĠ": 6516,
      "Ġmar": 6517,
      "LD": 6518,
      "Feature": 6519,
      "Ġpers": 6520,
      "Ġdimensions": 6521,
      "ana": 6522,
      "coming": 6523,
      "Cell": 6524,
      "Ġrather": 6525,
      "ĠSH": 6526,
      "Ġfast": 6527,
      "Ġinvol": 6528,
      "aps": 6529,
      "ĠDAT": 6530,
      "ierarch": 6531,
      "ĊĊĊĊ": 6532,
      "Sum": 6533,
      "poly": 6534,
      "Ġam": 6535,
      "choices": 6536,
      "Ġbuf": 6537,
      "ĠWHERE": 6538,
      "tw": 6539,
      "Ġtogether": 6540,
      "Ġproduction": 6541,
      "Ġ<<": 6542,
      "invoice": 6543,
      "bits": 6544,
      "Ġextensions": 6545,
      "ĠFunction": 6546,
      "locale": 6547,
      "KEN": 6548,
      "Matrix": 6549,
      "Ġep": 6550,
      "relation": 6551,
      "ĠMed": 6552,
      "Proxy": 6553,
      "hould": 6554,
      "Ġgovernment": 6555,
      "Ġtax": 6556,
      "inc": 6557,
      "problem": 6558,
      "RPC": 6559,
      "ĠGe": 6560,
      "Ġ}),": 6561,
      "analysis": 6562,
      "together": 6563,
      "definition": 6564,
      "illion": 6565,
      "digest": 6566,
      "2015": 6567,
      "Ð¾Ð": 6568,
      "questions": 6569,
      "âĢĵ": 6570,
      "replic": 6571,
      "Ġexamples": 6572,
      ":`~": 6573,
      "ailability": 6574,
      "Ġanaly": 6575,
      "eved": 6576,
      "Control": 6577,
      "timedelta": 6578,
      "Ġnear": 6579,
      "Ġhigher": 6580,
      "resourceGroup": 6581,
      "Ġnothing": 6582,
      "TEMPL": 6583,
      "Ġwomen": 6584,
      "coords": 6585,
      "*.": 6586,
      "Ġuri": 6587,
      "2011": 6588,
      "93": 6589,
      "dl": 6590,
      "translate": 6591,
      "olders": 6592,
      "Ġlayout": 6593,
      "Ġinfl": 6594,
      "Ġbug": 6595,
      "Ġlittle": 6596,
      "wn": 6597,
      "actual": 6598,
      "complex": 6599,
      "Ġhappen": 6600,
      "Ġfurther": 6601,
      "Ġaway": 6602,
      "Ġswitch": 6603,
      "uess": 6604,
      "suite": 6605,
      "61": 6606,
      "AV": 6607,
      "Ġcontroller": 6608,
      "relative": 6609,
      "Ġdesi": 6610,
      "MPLE": 6611,
      "eth": 6612,
      "utdown": 6613,
      "Ġpress": 6614,
      "Entity": 6615,
      "LOC": 6616,
      "Multi": 6617,
      "__.__": 6618,
      "Ġsignature": 6619,
      "assignment": 6620,
      "FS": 6621,
      "DES": 6622,
      "Ġsetattr": 6623,
      "(',": 6624,
      "Ġsit": 6625,
      "Ġintro": 6626,
      "best": 6627,
      "Ġcapt": 6628,
      "Ġfore": 6629,
      "Api": 6630,
      "intain": 6631,
      "manifest": 6632,
      "Ġsqu": 6633,
      "failure": 6634,
      "Dataset": 6635,
      "lazy": 6636,
      "plus": 6637,
      "Ġones": 6638,
      "nology": 6639,
      "Only": 6640,
      "dummy": 6641,
      ")}": 6642,
      "dx": 6643,
      "isfile": 6644,
      "ÑĢ": 6645,
      "direction": 6646,
      "ustr": 6647,
      "Ġaddr": 6648,
      "ka": 6649,
      "Ġdeep": 6650,
      "Ġroute": 6651,
      "Step": 6652,
      "cour": 6653,
      "amin": 6654,
      "andidate": 6655,
      "distribute": 6656,
      "Ġscan": 6657,
      "ues": 6658,
      "MIT": 6659,
      "Ġcompany": 6660,
      "upt": 6661,
      "Ġwon": 6662,
      "Ġok": 6663,
      "exe": 6664,
      "watch": 6665,
      "81": 6666,
      "pd": 6667,
      "ssian": 6668,
      "Ġinstalled": 6669,
      "gers": 6670,
      "cn": 6671,
      "Ġdisease": 6672,
      "82": 6673,
      "Ġwarning": 6674,
      "Files": 6675,
      "Unit": 6676,
      "ĠOrderedDict": 6677,
      "impl": 6678,
      "ĠInput": 6679,
      "brid": 6680,
      ">\"": 6681,
      "tile": 6682,
      "dimension": 6683,
      "Ġ'[": 6684,
      "Ġdeprecated": 6685,
      "ĠDO": 6686,
      "LIST": 6687,
      "alloc": 6688,
      "Ġlive": 6689,
      "bra": 6690,
      "ptr": 6691,
      "Ġnone": 6692,
      "ifiers": 6693,
      "Metadata": 6694,
      "rome": 6695,
      "Ġmodifi": 6696,
      "ised": 6697,
      "Ġdependencies": 6698,
      "ĠWhat": 6699,
      "Account": 6700,
      "multiple": 6701,
      "Ġusually": 6702,
      "Doc": 6703,
      "ĠClass": 6704,
      "PIPE": 6705,
      "Ġincludes": 6706,
      "patterns": 6707,
      "ĠâĢĶ": 6708,
      "Ġarrays": 6709,
      "pot": 6710,
      "appro": 6711,
      "FORMAT": 6712,
      "closed": 6713,
      "Ġprior": 6714,
      "Ġcast": 6715,
      "loor": 6716,
      "Ġmachine": 6717,
      "Ġlikely": 6718,
      "Ġwriter": 6719,
      "Big": 6720,
      "STATE": 6721,
      "Positive": 6722,
      "though": 6723,
      "LIED": 6724,
      "Ġtuples": 6725,
      "Ġsignific": 6726,
      "Ġtempfile": 6727,
      "Ġsqlalchemy": 6728,
      "parametri": 6729,
      "Ġtables": 6730,
      "develo": 6731,
      "Ġannot": 6732,
      "ula": 6733,
      "country": 6734,
      "expect": 6735,
      "nsure": 6736,
      "Ġschedule": 6737,
      "Ġfd": 6738,
      "isted": 6739,
      "Dialog": 6740,
      "orse": 6741,
      "Ġfire": 6742,
      "FC": 6743,
      "Ġcreation": 6744,
      "Ġlonger": 6745,
      "house": 6746,
      "igration": 6747,
      "neg": 6748,
      "ĠTemplate": 6749,
      "notification": 6750,
      "Ġwar": 6751,
      "Av": 6752,
      "treat": 6753,
      "istance": 6754,
      "Ġtaken": 6755,
      "Cannot": 6756,
      "bias": 6757,
      "Ġur": 6758,
      "Ġalgorithm": 6759,
      "}.{": 6760,
      "pan": 6761,
      "ffici": 6762,
      "Ġfreq": 6763,
      "allclose": 6764,
      "ĠAmerican": 6765,
      "DEF": 6766,
      "Ġupper": 6767,
      "vl": 6768,
      "zure": 6769,
      "Ġoffi": 6770,
      "machine": 6771,
      "ĠWork": 6772,
      "tyle": 6773,
      "existing": 6774,
      "ĠBuild": 6775,
      "mult": 6776,
      "shell": 6777,
      "Ġautomatically": 6778,
      "vc": 6779,
      "Ġwrong": 6780,
      "ssh": 6781,
      "Ġground": 6782,
      "Ġvert": 6783,
      "stubs": 6784,
      "emit": 6785,
      "Ġns": 6786,
      "colors": 6787,
      "Ġlists": 6788,
      "enario": 6789,
      "uffle": 6790,
      "Ġamong": 6791,
      "aj": 6792,
      "Agent": 6793,
      "attrib": 6794,
      "Ġdefin": 6795,
      "ORE": 6796,
      "big": 6797,
      "vocab": 6798,
      "registration": 6799,
      "Parameters": 6800,
      "live": 6801,
      "Ġsn": 6802,
      "Current": 6803,
      "Bounded": 6804,
      "atives": 6805,
      "gon": 6806,
      "itation": 6807,
      "ulated": 6808,
      "ĠTable": 6809,
      "ropy": 6810,
      "that": 6811,
      "Ġgit": 6812,
      "mu": 6813,
      "Ġreview": 6814,
      "TS": 6815,
      "Ġcut": 6816,
      "Does": 6817,
      "ĠPath": 6818,
      "stanti": 6819,
      "SERVER": 6820,
      "sid": 6821,
      "OLDER": 6822,
      "ĠRet": 6823,
      "analy": 6824,
      "partial": 6825,
      "ior": 6826,
      "isinstance": 6827,
      "Ġfeel": 6828,
      "wb": 6829,
      "Ġstarting": 6830,
      "MAG": 6831,
      "TC": 6832,
      "iving": 6833,
      "ament": 6834,
      "2016": 6835,
      "ĠSQL": 6836,
      "\\\"": 6837,
      "literals": 6838,
      "SUB": 6839,
      "Ġpad": 6840,
      "Ġinner": 6841,
      "LINE": 6842,
      "Ġcult": 6843,
      "Ġsystems": 6844,
      "åħ": 6845,
      "Ġescape": 6846,
      "ograph": 6847,
      "isco": 6848,
      "Ñģ": 6849,
      "ĠOUT": 6850,
      "ĊĉĊ": 6851,
      "sidered": 6852,
      "'m": 6853,
      "Ġpa": 6854,
      "Temp": 6855,
      "ii": 6856,
      "Permission": 6857,
      "Ġpartial": 6858,
      "visit": 6859,
      "ientation": 6860,
      "Ġ###": 6861,
      "Ġeconom": 6862,
      "Ġpackages": 6863,
      "Ġcorrectly": 6864,
      "BACK": 6865,
      "ĠON": 6866,
      "Ġtemplates": 6867,
      "setting": 6868,
      "Ġwhy": 6869,
      "compare": 6870,
      "refs": 6871,
      "Ġhidden": 6872,
      "Ġjobs": 6873,
      "Unknown": 6874,
      "vie": 6875,
      "Ġflask": 6876,
      "otes": 6877,
      "utors": 6878,
      "tel": 6879,
      "estim": 6880,
      "ĠNow": 6881,
      "ĠBUT": 6882,
      "aker": 6883,
      "radius": 6884,
      "Ġuv": 6885,
      "VALID": 6886,
      "den": 6887,
      "ern": 6888,
      "Ġsym": 6889,
      "arDown": 6890,
      "Ġds": 6891,
      "cwd": 6892,
      "čĊčĊč": 6893,
      "cluded": 6894,
      "Description": 6895,
      "ĠPri": 6896,
      "otal": 6897,
      "ĠRights": 6898,
      "parametrize": 6899,
      "conver": 6900,
      "Ġcover": 6901,
      "Ġinspect": 6902,
      "absolute": 6903,
      "cipe": 6904,
      "Args": 6905,
      "Speci": 6906,
      "serial": 6907,
      "Ġ22": 6908,
      "Ġunknown": 6909,
      "same": 6910,
      "(\"--": 6911,
      "Ġsecret": 6912,
      "browse": 6913,
      "Ġstory": 6914,
      "/')": 6915,
      "Ġpkg": 6916,
      "Values": 6917,
      "Ġbene": 6918,
      "[[": 6919,
      "Ġapplied": 6920,
      "rupt": 6921,
      "Ġ2016": 6922,
      "Local": 6923,
      "Ġfriend": 6924,
      "mob": 6925,
      "Ġsets": 6926,
      "Ġmen": 6927,
      "Ġaddresses": 6928,
      "foreign": 6929,
      "cel": 6930,
      "ĠMin": 6931,
      "ĠValue": 6932,
      "192": 6933,
      "Ġcompare": 6934,
      ":'": 6935,
      "Ġcont": 6936,
      "IST": 6937,
      ")-": 6938,
      "Ġconsidered": 6939,
      "vention": 6940,
      "Ġsays": 6941,
      "irs": 6942,
      "ROUP": 6943,
      "Ġfails": 6944,
      ",-": 6945,
      "openstack": 6946,
      "Ġmet": 6947,
      "uda": 6948,
      "today": 6949,
      "repe": 6950,
      "Ġdelay": 6951,
      "Ġ400": 6952,
      "Ġblack": 6953,
      "Ġ(-": 6954,
      "backends": 6955,
      "filepath": 6956,
      "Ġwhose": 6957,
      "fri": 6958,
      "priority": 6959,
      "enticated": 6960,
      "Ġexperiment": 6961,
      "strap": 6962,
      "Channel": 6963,
      "Route": 6964,
      "pout": 6965,
      "Ġtemperature": 6966,
      "Ġful": 6967,
      "quivalent": 6968,
      "Ġtheme": 6969,
      "Ġloaded": 6970,
      "Ġcalculate": 6971,
      "perm": 6972,
      "ĠDocument": 6973,
      "Ġselection": 6974,
      "pping": 6975,
      "munic": 6976,
      "cross": 6977,
      "Ð½": 6978,
      "family": 6979,
      "irtual": 6980,
      "Ġlab": 6981,
      "ĠIMPLIED": 6982,
      "mc": 6983,
      "getattr": 6984,
      "Ġstarted": 6985,
      "dn": 6986,
      "fied": 6987,
      "Ġmanual": 6988,
      "Ġ[{'": 6989,
      "FR": 6990,
      "Pi": 6991,
      "crement": 6992,
      "Ġ80": 6993,
      "Ġ21": 6994,
      "/{}": 6995,
      "PASS": 6996,
      "ends": 6997,
      "execution": 6998,
      "Ġquant": 6999,
      "ĠWindows": 7000,
      "ĠCustom": 7001,
      "Ġrespect": 7002,
      "\\.": 7003,
      "Product": 7004,
      "LOCK": 7005,
      "UI": 7006,
      "star": 7007,
      "stage": 7008,
      "Ġmicro": 7009,
      "arison": 7010,
      "Collection": 7011,
      "Ġissues": 7012,
      "Cor": 7013,
      "weet": 7014,
      "examples": 7015,
      "Struct": 7016,
      ":\",": 7017,
      "Ġentire": 7018,
      "Ġ'\"": 7019,
      "ĠCur": 7020,
      "cles": 7021,
      "Cho": 7022,
      "uc": 7023,
      "mox": 7024,
      "disable": 7025,
      "gamma": 7026,
      "licies": 7027,
      "0001": 7028,
      "matches": 7029,
      "bn": 7030,
      "Ġ'+": 7031,
      "ĠNational": 7032,
      "argin": 7033,
      "national": 7034,
      "Ġappear": 7035,
      "Use": 7036,
      "flat": 7037,
      "monitor": 7038,
      "101": 7039,
      "UND": 7040,
      "PREFIX": 7041,
      "What": 7042,
      "ĠLIMITED": 7043,
      "dtypes": 7044,
      "Ġicon": 7045,
      "uel": 7046,
      "ategorical": 7047,
      "Ġstrjump": 7048,
      "rv": 7049,
      "Ġcertificate": 7050,
      "URCE": 7051,
      "processor": 7052,
      "lar": 7053,
      "translation": 7054,
      "Regex": 7055,
      "VAR": 7056,
      "quota": 7057,
      "ĠBE": 7058,
      "confirm": 7059,
      "neutron": 7060,
      "leaf": 7061,
      "Connect": 7062,
      "IME": 7063,
      "AIN": 7064,
      "Ġsec": 7065,
      "runtime": 7066,
      "placeholder": 7067,
      "bc": 7068,
      "MES": 7069,
      "ao": 7070,
      "awn": 7071,
      "[:]": 7072,
      "associ": 7073,
      "connected": 7074,
      "entities": 7075,
      "Ġplant": 7076,
      "Ġcalling": 7077,
      "Ġwhite": 7078,
      "2017": 7079,
      "threads": 7080,
      "moves": 7081,
      "Ġ}}": 7082,
      "Ġmanagement": 7083,
      "ĠLIC": 7084,
      "collections": 7085,
      "speed": 7086,
      "ĠOutput": 7087,
      "bum": 7088,
      "ike": 7089,
      "Ġ23": 7090,
      "åĲ": 7091,
      "Ġ500": 7092,
      "pairs": 7093,
      "sheet": 7094,
      "UST": 7095,
      "Ġmail": 7096,
      "ĠMessage": 7097,
      "Ġcoordinates": 7098,
      "Ġlayers": 7099,
      "ĠDataFrame": 7100,
      "Ġpred": 7101,
      "Ġmass": 7102,
      "illing": 7103,
      "ĠVariable": 7104,
      "izations": 7105,
      "fficult": 7106,
      "ĠAssert": 7107,
      "ulip": 7108,
      "tached": 7109,
      "ĠRemove": 7110,
      "INGS": 7111,
      "Ġpoly": 7112,
      "ĠAsync": 7113,
      "Ġpid": 7114,
      "Ġoutfile": 7115,
      "Make": 7116,
      "cpp": 7117,
      "uv": 7118,
      "Ġpacket": 7119,
      "'%": 7120,
      "rozen": 7121,
      "Ġdescriptor": 7122,
      "Ġmaterials": 7123,
      "cancel": 7124,
      "Print": 7125,
      "Ġrv": 7126,
      "visor": 7127,
      "generic": 7128,
      "Ġtreatment": 7129,
      "ĠWith": 7130,
      "Ùĩ": 7131,
      "Ġfoot": 7132,
      "gettext": 7133,
      "ĠDecimal": 7134,
      "Rest": 7135,
      "cursive": 7136,
      "Programming": 7137,
      "BR": 7138,
      "ensure": 7139,
      "Load": 7140,
      "Some": 7141,
      "uk": 7142,
      "Ġanything": 7143,
      "processed": 7144,
      "figure": 7145,
      "Cons": 7146,
      "Vis": 7147,
      "sence": 7148,
      "Net": 7149,
      "Ġbr": 7150,
      "ĠSphinx": 7151,
      "Ġgreater": 7152,
      "eps": 7153,
      "udit": 7154,
      "Ġscalar": 7155,
      ">')": 7156,
      "ĠMay": 7157,
      "balance": 7158,
      "hcp": 7159,
      "Ġdesired": 7160,
      "ced": 7161,
      "Ġcommunic": 7162,
      "ino": 7163,
      "ĠHel": 7164,
      "sensor": 7165,
      "Authentication": 7166,
      "Ġfs": 7167,
      "changes": 7168,
      "Buffer": 7169,
      "Ġut": 7170,
      "inger": 7171,
      "Ġproc": 7172,
      "Ġcached": 7173,
      "orph": 7174,
      "anging": 7175,
      "configure": 7176,
      "Report": 7177,
      "Ġasset": 7178,
      "ĠFirst": 7179,
      "INST": 7180,
      "ĠTests": 7181,
      "dependencies": 7182,
      "gate": 7183,
      "ĠReserved": 7184,
      "Ġbuilder": 7185,
      "temperature": 7186,
      "{'": 7187,
      "baz": 7188,
      "Decimal": 7189,
      "Could": 7190,
      "Ġpopulation": 7191,
      "ny": 7192,
      "Ġminimum": 7193,
      "={\"": 7194,
      "Ġplease": 7195,
      "ideo": 7196,
      "ĠStringIO": 7197,
      "unctools": 7198,
      "II": 7199,
      "staff": 7200,
      "Rule": 7201,
      "livery": 7202,
      "band": 7203,
      "sect": 7204,
      "uters": 7205,
      "Tuple": 7206,
      "Ġphysical": 7207,
      "ighbors": 7208,
      "TOKEN": 7209,
      "Ġlang": 7210,
      "aste": 7211,
      "Ġchoice": 7212,
      "Ġden": 7213,
      "Ġproduce": 7214,
      "ATCH": 7215,
      "Ġexperience": 7216,
      "eg": 7217,
      "omial": 7218,
      "ĠEach": 7219,
      "Ġbottom": 7220,
      "when": 7221,
      "urope": 7222,
      "Ġblood": 7223,
      "VALUE": 7224,
      "ĠOptions": 7225,
      "[^": 7226,
      "ymbol": 7227,
      "precision": 7228,
      "#-": 7229,
      "ĊĠĠĠĠĠĠĠĠĠĠĠĠĠĠĠĠĠĠĠĠĠĠĠĠĠĠĠĠĠĠĠĠĠĠĠĠĠĠĠĠĠĠĠĠĠĠĠĠĠ": 7230,
      "pts": 7231,
      "ĠWH": 7232,
      "trigger": 7233,
      "Ġprecision": 7234,
      "resize": 7235,
      "Ġclosed": 7236,
      "wa": 7237,
      "week": 7238,
      "'+": 7239,
      "Ġyaml": 7240,
      ")\")": 7241,
      "/<": 7242,
      "ĠØ": 7243,
      "Ġtell": 7244,
      "standard": 7245,
      "pin": 7246,
      "notes": 7247,
      "restore": 7248,
      "diffe": 7249,
      "oked": 7250,
      "without": 7251,
      "mooth": 7252,
      "ĠCOPYRIGHT": 7253,
      "ĠSch": 7254,
      "Normal": 7255,
      "OM": 7256,
      "TEMPLATE": 7257,
      "jpg": 7258,
      "ores": 7259,
      "Ġdag": 7260,
      "letion": 7261,
      "DT": 7262,
      "Role": 7263,
      "ĠAg": 7264,
      "REG": 7265,
      "Directory": 7266,
      "Ġyo": 7267,
      "variance": 7268,
      "SSL": 7269,
      "seek": 7270,
      "ios": 7271,
      "ĠBY": 7272,
      "00000": 7273,
      "Ġareas": 7274,
      "background": 7275,
      "Almost": 7276,
      "UNT": 7277,
      "Ġthreshold": 7278,
      "Ġcopies": 7279,
      "Ġoutside": 7280,
      "Last": 7281,
      "Ġmd": 7282,
      "ĠLICENSE": 7283,
      "endor": 7284,
      "Ġroom": 7285,
      "EP": 7286,
      "ĠFind": 7287,
      "canvas": 7288,
      "Ax": 7289,
      "ham": 7290,
      "scripts": 7291,
      "emp": 7292,
      "Ġprocessing": 7293,
      "ĠLa": 7294,
      "aws": 7295,
      "clip": 7296,
      "Ġconverted": 7297,
      "timer": 7298,
      "Ġorg": 7299,
      "Backend": 7300,
      "ogram": 7301,
      "cus": 7302,
      "Ġpotential": 7303,
      "nr": 7304,
      "Password": 7305,
      "Ġspeed": 7306,
      "orizont": 7307,
      "destroy": 7308,
      "300": 7309,
      "ordering": 7310,
      "YPE": 7311,
      "PRESS": 7312,
      "Ġsock": 7313,
      "ently": 7314,
      "Ġexpand": 7315,
      "Ġbuilding": 7316,
      "experiment": 7317,
      "Ġmarker": 7318,
      "BB": 7319,
      "geo": 7320,
      "AF": 7321,
      "xim": 7322,
      "readline": 7323,
      "Ġiterator": 7324,
      "oauth": 7325,
      "Rece": 7326,
      "Ġregard": 7327,
      "Ġslug": 7328,
      "Person": 7329,
      "Ġthing": 7330,
      "Ġ28": 7331,
      "Required": 7332,
      "ICT": 7333,
      "Ġquality": 7334,
      "atar": 7335,
      "tein": 7336,
      "ĠTask": 7337,
      "2000": 7338,
      "inct": 7339,
      "phase": 7340,
      "DELETE": 7341,
      "Ġinterpre": 7342,
      "COMM": 7343,
      "Show": 7344,
      "999": 7345,
      "Unable": 7346,
      "criptor": 7347,
      "Ġregistered": 7348,
      "ĠSeries": 7349,
      "Ali": 7350,
      "world": 7351,
      "bos": 7352,
      "aily": 7353,
      "Ġrecomm": 7354,
      "workflow": 7355,
      "alan": 7356,
      ">>>": 7357,
      "ĠLIABILITY": 7358,
      "Ġ2010": 7359,
      "rown": 7360,
      "SCH": 7361,
      "Tri": 7362,
      "pag": 7363,
      ".],": 7364,
      "lists": 7365,
      "ĠUnited": 7366,
      "props": 7367,
      "Ġmult": 7368,
      "POINT": 7369,
      "Operator": 7370,
      "which": 7371,
      "bine": 7372,
      "ĠGod": 7373,
      "HTML": 7374,
      "Ġsignificant": 7375,
      "Ġ42": 7376,
      "Ġchallen": 7377,
      "party": 7378,
      "æķ": 7379,
      "Ġscient": 7380,
      "Ġanim": 7381,
      "frames": 7382,
      "scalar": 7383,
      "Ġbeta": 7384,
      "hour": 7385,
      "cycle": 7386,
      "management": 7387,
      "ĠStates": 7388,
      "vidence": 7389,
      "ĠEd": 7390,
      "ĠIOError": 7391,
      "osition": 7392,
      "Ġimpact": 7393,
      "Ip": 7394,
      "ighted": 7395,
      "AlmostEqual": 7396,
      "ĠMar": 7397,
      "shapes": 7398,
      "fort": 7399,
      "dian": 7400,
      "itespace": 7401,
      "tn": 7402,
      "Ġrecogn": 7403,
      "]}": 7404,
      "war": 7405,
      "à¤": 7406,
      "proj": 7407,
      "Ġgets": 7408,
      "Ġshift": 7409,
      "äº": 7410,
      "Ġaddition": 7411,
      "NotExist": 7412,
      "published": 7413,
      "ims": 7414,
      "Ġcert": 7415,
      "hr": 7416,
      "seline": 7417,
      "Ġduration": 7418,
      "Ġangle": 7419,
      "moved": 7420,
      "mid": 7421,
      "separ": 7422,
      "Ġtrigger": 7423,
      "Ġcour": 7424,
      "Simple": 7425,
      "lexible": 7426,
      "glob": 7427,
      "ada": 7428,
      "START": 7429,
      "ĠStart": 7430,
      "Ġthough": 7431,
      "Ġdepends": 7432,
      "ĠMat": 7433,
      "regular": 7434,
      "Ġprobably": 7435,
      "arrant": 7436,
      "Ġattempt": 7437,
      "lb": 7438,
      "locations": 7439,
      "ongo": 7440,
      "ĠPlease": 7441,
      "Ġdot": 7442,
      "servations": 7443,
      "Ġexpi": 7444,
      "Ġmesh": 7445,
      "Ġpairs": 7446,
      "meth": 7447,
      "usion": 7448,
      "Ġ2011": 7449,
      "ĠChange": 7450,
      "CLI": 7451,
      "Art": 7452,
      "Ġtimezone": 7453,
      "voke": 7454,
      "GO": 7455,
      "ECK": 7456,
      "Exists": 7457,
      "grpc": 7458,
      "(\"\"": 7459,
      "ĠFake": 7460,
      "Bl": 7461,
      "Ġbackground": 7462,
      "ji": 7463,
      "ampaign": 7464,
      "eder": 7465,
      "ĠEVENT": 7466,
      "statement": 7467,
      "Ġaltern": 7468,
      "Builder": 7469,
      "Ġidentity": 7470,
      "çĶ": 7471,
      "wever": 7472,
      "Ġ\"#": 7473,
      "Ġnatural": 7474,
      "Ġpatterns": 7475,
      "ĠItem": 7476,
      "Ġchannels": 7477,
      "Ġconnected": 7478,
      "selves": 7479,
      "Ġrec": 7480,
      "negative": 7481,
      "Ġhomeassistant": 7482,
      "Fake": 7483,
      "Ġredistribute": 7484,
      "ANCE": 7485,
      "Ġdecimal": 7486,
      "Component": 7487,
      "ech": 7488,
      "customer": 7489,
      "Param": 7490,
      "while": 7491,
      "white": 7492,
      "dig": 7493,
      "FIEL": 7494,
      "=('": 7495,
      "ĠThat": 7496,
      "Ġedges": 7497,
      "Dep": 7498,
      "Ġenter": 7499,
      "LC": 7500,
      "packet": 7501,
      "Ġdoing": 7502,
      "Credentials": 7503,
      "Ġfmt": 7504,
      "dicate": 7505,
      "Ġcloud": 7506,
      "disabled": 7507,
      ".+": 7508,
      "got": 7509,
      "lst": 7510,
      "Ġsequ": 7511,
      "Ġhours": 7512,
      "cussion": 7513,
      "Ġrespons": 7514,
      "Reader": 7515,
      "linux": 7516,
      "Ġshall": 7517,
      "COMP": 7518,
      "Transform": 7519,
      "Example": 7520,
      "')))": 7521,
      "ĠQuery": 7522,
      "Ġlatest": 7523,
      "Ġscores": 7524,
      "Ġstrip": 7525,
      "alert": 7526,
      "configs": 7527,
      "ierarchy": 7528,
      "Ġdeath": 7529,
      "Ġflavor": 7530,
      "Transport": 7531,
      "SM": 7532,
      "fox": 7533,
      "Ġattention": 7534,
      "ĠChar": 7535,
      "ridge": 7536,
      "Ġsympy": 7537,
      "mozilla": 7538,
      "sizes": 7539,
      "quantity": 7540,
      "ensive": 7541,
      "Ġhowever": 7542,
      "ighbor": 7543,
      "mq": 7544,
      "Ġeffects": 7545,
      "Ġsimply": 7546,
      "-------": 7547,
      "article": 7548,
      "randint": 7549,
      "OFF": 7550,
      "parsed": 7551,
      "Ġhook": 7552,
      "orizontal": 7553,
      "follow": 7554,
      "wt": 7555,
      "(_('": 7556,
      "cont": 7557,
      "mediate": 7558,
      "istribution": 7559,
      "Ġol": 7560,
      "Ġbel": 7561,
      "Ġbuiltin": 7562,
      "Category": 7563,
      "=[],": 7564,
      "!\")": 7565,
      "Ġremaining": 7566,
      "pology": 7567,
      "ĠPol": 7568,
      "ceed": 7569,
      "Syn": 7570,
      "scheduler": 7571,
      "assertAlmostEqual": 7572,
      "subplot": 7573,
      "Cre": 7574,
      "pull": 7575,
      "Ġrevision": 7576,
      "Height": 7577,
      "ov": 7578,
      "urations": 7579,
      "ĠPass": 7580,
      "mitive": 7581,
      "Ġcs": 7582,
      "Ġsat": 7583,
      "clone": 7584,
      "cleaned": 7585,
      "Ġuni": 7586,
      "CHECK": 7587,
      "Ġfam": 7588,
      "timezone": 7589,
      "cise": 7590,
      "Sol": 7591,
      "Ġwarrant": 7592,
      "ILD": 7593,
      "5678": 7594,
      "Ġfac": 7595,
      "yles": 7596,
      "isode": 7597,
      "How": 7598,
      "Ġnormalize": 7599,
      "ico": 7600,
      "agraph": 7601,
      "Domain": 7602,
      "ĠEnglish": 7603,
      "bf": 7604,
      "clause": 7605,
      "Ġpartner": 7606,
      "Ġsender": 7607,
      "ÙĪ": 7608,
      "anded": 7609,
      "under": 7610,
      "čĊĉĉ": 7611,
      "Ġitertools": 7612,
      "Ġå": 7613,
      "ĠOP": 7614,
      "{\"": 7615,
      "ĠLes": 7616,
      "addresses": 7617,
      "udget": 7618,
      "Ġocc": 7619,
      "ĠProcess": 7620,
      "CG": 7621,
      "Global": 7622,
      "TIONS": 7623,
      "activate": 7624,
      "DoesNotExist": 7625,
      "1111": 7626,
      "Ġconnections": 7627,
      "quant": 7628,
      "ĠNetwork": 7629,
      "udies": 7630,
      "assertIsNone": 7631,
      "tc": 7632,
      "major": 7633,
      "Ġmetavar": 7634,
      "Ġinitialize": 7635,
      "Ġsensor": 7636,
      "ordered": 7637,
      "learning": 7638,
      "PositiveIntegerField": 7639,
      "ky": 7640,
      "Ġzer": 7641,
      "Ġparents": 7642,
      "'ll": 7643,
      "Mark": 7644,
      "PH": 7645,
      "eng": 7646,
      "Descriptor": 7647,
      "Ġways": 7648,
      "ama": 7649,
      "ĠFil": 7650,
      "ĠRegist": 7651,
      "Ġcred": 7652,
      "Ġlead": 7653,
      "Grid": 7654,
      "categories": 7655,
      "reply": 7656,
      "Ġelem": 7657,
      "fixtures": 7658,
      "Ġtechn": 7659,
      "Ġindu": 7660,
      "ATED": 7661,
      "LOAD": 7662,
      "inline": 7663,
      "aused": 7664,
      "binding": 7665,
      "Ġheart": 7666,
      "Ġmaintain": 7667,
      "variant": 7668,
      "Ġprepare": 7669,
      "ĠDevelo": 7670,
      "walk": 7671,
      "ras": 7672,
      "toms": 7673,
      "ffff": 7674,
      "ĠBl": 7675,
      "Ġlot": 7676,
      "ĊĠĠĠĠĠĠĠĠĠĠĠĠĠĠĠĠĠĠĠĠĠĠĠĠĠĠĠĠĠĠĠĠĠĠĠĠĠĠĠĠĠĠĠĠĠĠĠĠĠĠĠ": 7677,
      "}:": 7678,
      "deprecated": 7679,
      "Ġstage": 7680,
      "180": 7681,
      "ey": 7682,
      "ley": 7683,
      "Ġdifficult": 7684,
      "mic": 7685,
      "providers": 7686,
      "ASH": 7687,
      "partment": 7688,
      "issues": 7689,
      "received": 7690,
      "();": 7691,
      "168": 7692,
      "utcnow": 7693,
      "Ġmid": 7694,
      "SR": 7695,
      "Ġrpc": 7696,
      "distribution": 7697,
      "small": 7698,
      "ĠSource": 7699,
      "Ġind": 7700,
      "Raw": 7701,
      "draft": 7702,
      "ĠTEST": 7703,
      "Ġhalf": 7704,
      "omin": 7705,
      "91": 7706,
      "ulary": 7707,
      "arrow": 7708,
      "isdir": 7709,
      "Ġvocab": 7710,
      "Ġsuite": 7711,
      "acl": 7712,
      "čĊĠĠĠĠ": 7713,
      "WIT": 7714,
      "Ġbrowser": 7715,
      "payment": 7716,
      "Ġidentify": 7717,
      ":',": 7718,
      "kill": 7719,
      "sites": 7720,
      "When": 7721,
      "Ġdetect": 7722,
      "TAG": 7723,
      "ulator": 7724,
      "spl": 7725,
      "ermin": 7726,
      "Ġmeas": 7727,
      "Ġstrategy": 7728,
      "LY": 7729,
      "Ġqueryset": 7730,
      "ARCH": 7731,
      "tems": 7732,
      "Formatter": 7733,
      "Ġperformance": 7734,
      "ÙĨ": 7735,
      "calc": 7736,
      "poll": 7737,
      "Ġprocesses": 7738,
      "ĠDon": 7739,
      "ĠMIT": 7740,
      "ĠMark": 7741,
      "selector": 7742,
      "assertIsInstance": 7743,
      "rea": 7744,
      "ĊĠĠĠĠĠĠĠĠĠĠĠĠĠĠĠĠĠĠĠĠĠĠĠĠĠĠĠĠĠĠĠĠĠĠĠĠĠĠĠĠĠĠĠĠĠĠĠĠĠĠ": 7745,
      "Style": 7746,
      "Title": 7747,
      "izing": 7748,
      "Ġec": 7749,
      "Ġsq": 7750,
      "cnt": 7751,
      "ĠInteger": 7752,
      "ĠOver": 7753,
      "mass": 7754,
      "rypt": 7755,
      "Ġconcept": 7756,
      "Ùħ": 7757,
      "čĊĠĠĠĠĠĠĠĠ": 7758,
      "Ġmoder": 7759,
      "mpling": 7760,
      "Ġentities": 7761,
      "rides": 7762,
      "Det": 7763,
      "inja": 7764,
      "Ġmut": 7765,
      "Ġgetting": 7766,
      "Ġsha": 7767,
      "Runner": 7768,
      "marker": 7769,
      "Wh": 7770,
      "#-#-": 7771,
      "Find": 7772,
      "Foo": 7773,
      "Ġer": 7774,
      "ADDR": 7775,
      "Ġdifference": 7776,
      "may": 7777,
      "Ġparticip": 7778,
      "~~~~~~~~": 7779,
      "ĠWhether": 7780,
      "gnu": 7781,
      "Ġphase": 7782,
      "Ġpolit": 7783,
      "Menu": 7784,
      "Helper": 7785,
      "Ġnor": 7786,
      "Ġnested": 7787,
      "Ġcomments": 7788,
      "ticket": 7789,
      "readonly": 7790,
      "oted": 7791,
      "cture": 7792,
      "Ġquota": 7793,
      "Ċĉĉĉĉĉĉĉĉ": 7794,
      "maked": 7795,
      "DEX": 7796,
      "Ġeditor": 7797,
      "Val": 7798,
      "Ġfrappe": 7799,
      "ToMany": 7800,
      "echo": 7801,
      "Ġant": 7802,
      "ĠTry": 7803,
      "Accept": 7804,
      "Copy": 7805,
      "ctest": 7806,
      "Ġpriority": 7807,
      "ĠPost": 7808,
      "Ġcurr": 7809,
      "Ġmonitor": 7810,
      "Ġcolors": 7811,
      "============================================================================": 7812,
      "ellow": 7813,
      "Ġwarranty": 7814,
      "rase": 7815,
      "Ġboot": 7816,
      "Ġbrain": 7817,
      "Position": 7818,
      "Ġfigure": 7819,
      "Vector": 7820,
      "ĠUnion": 7821,
      "keywords": 7822,
      "saved": 7823,
      "cade": 7824,
      "SubElement": 7825,
      "letter": 7826,
      "Ġestab": 7827,
      "ĠContent": 7828,
      "(':": 7829,
      "rst": 7830,
      "Ġeps": 7831,
      "ilit": 7832,
      "ĠCl": 7833,
      "Ġimprove": 7834,
      "{%": 7835,
      "Ġruns": 7836,
      "Ġdirectories": 7837,
      "Font": 7838,
      "ĠMon": 7839,
      "/(?": 7840,
      "Med": 7841,
      "chie": 7842,
      "repository": 7843,
      "bins": 7844,
      "updates": 7845,
      "responses": 7846,
      "Ġseparate": 7847,
      "CAC": 7848,
      "stim": 7849,
      "Ġfilenames": 7850,
      "mn": 7851,
      "atic": 7852,
      "BC": 7853,
      "scheme": 7854,
      "ĠSol": 7855,
      "ĠSto": 7856,
      "Inst": 7857,
      "2020": 7858,
      "Extension": 7859,
      "attachment": 7860,
      "\"\"\")": 7861,
      "Ġlooking": 7862,
      "Space": 7863,
      "getitem": 7864,
      "Ġconsole": 7865,
      "arth": 7866,
      "Ġ1024": 7867,
      "za": 7868,
      "resolve": 7869,
      "Ġtick": 7870,
      "bp": 7871,
      "anger": 7872,
      "Ġsupports": 7873,
      "\"%": 7874,
      "],[": 7875,
      "Provider": 7876,
      "rx": 7877,
      "boxes": 7878,
      "ĠServer": 7879,
      "Ġfloating": 7880,
      "must": 7881,
      "leting": 7882,
      "initialize": 7883,
      "Ġrect": 7884,
      "itch": 7885,
      "Ġregistry": 7886,
      "ndim": 7887,
      "Ġ----------------------------------------------------------------": 7888,
      "Ġproperly": 7889,
      "checkpoint": 7890,
      "WR": 7891,
      "bd": 7892,
      "Ġconstructor": 7893,
      "Ġ{}).": 7894,
      "NET": 7895,
      "subscriptionId": 7896,
      "Ġlinear": 7897,
      "take": 7898,
      "600": 7899,
      "Ġcity": 7900,
      "ĠSimple": 7901,
      "ĠBo": 7902,
      "ĠLesser": 7903,
      "vote": 7904,
      "audio": 7905,
      "Ġ\"\")": 7906,
      "ini": 7907,
      "Ġ\"{}": 7908,
      "Ġdtypes": 7909,
      "define": 7910,
      "Ġdouble": 7911,
      "Cluster": 7912,
      "good": 7913,
      "IES": 7914,
      "gi": 7915,
      "xpath": 7916,
      "native": 7917,
      "Please": 7918,
      "processors": 7919,
      "Ġ2017": 7920,
      "bounds": 7921,
      "finite": 7922,
      "Ġeverything": 7923,
      "circ": 7924,
      "Ġresponses": 7925,
      "AIL": 7926,
      "Hello": 7927,
      "itles": 7928,
      "Ġupon": 7929,
      "\"+": 7930,
      "Ġbio": 7931,
      "onymous": 7932,
      "Ġtransl": 7933,
      "special": 7934,
      "Ġpredictions": 7935,
      "BS": 7936,
      "Database": 7937,
      "Ġeng": 7938,
      "Ġpretty": 7939,
      "TF": 7940,
      "Ġ'*": 7941,
      "strategy": 7942,
      "hours": 7943,
      "NotFoundError": 7944,
      "Ġtyping": 7945,
      "Attr": 7946,
      "bottom": 7947,
      "okies": 7948,
      "DIRECT": 7949,
      "Ġagree": 7950,
      "keras": 7951,
      "ï¼Į": 7952,
      "ĠLib": 7953,
      "Engine": 7954,
      "MAGES": 7955,
      "BY": 7956,
      "Ġmx": 7957,
      "Loader": 7958,
      "={}": 7959,
      "Ġsuccessful": 7960,
      "orders": 7961,
      "Ġserialize": 7962,
      "Feed": 7963,
      "builtin": 7964,
      "Ġeducation": 7965,
      "PP": 7966,
      "Ġem": 7967,
      "ĠArt": 7968,
      "Handle": 7969,
      "Ġprofe": 7970,
      "previous": 7971,
      "Parent": 7972,
      "lour": 7973,
      "erical": 7974,
      "LIN": 7975,
      "ĠSearch": 7976,
      "migration": 7977,
      "recv": 7978,
      "Ġhostname": 7979,
      "Ġmasked": 7980,
      "epochs": 7981,
      "Package": 7982,
      "Ġadding": 7983,
      "ganization": 7984,
      "XXXXXXXX": 7985,
      "average": 7986,
      "health": 7987,
      "mkdir": 7988,
      "uck": 7989,
      "ĠMem": 7990,
      "irth": 7991,
      "Lim": 7992,
      "Look": 7993,
      "uniform": 7994,
      "men": 7995,
      "eting": 7996,
      "crypted": 7997,
      "ulations": 7998,
      "ĠLO": 7999,
      "Generator": 8000,
      "Ġquick": 8001,
      "CUR": 8002,
      "ĠMax": 8003,
      "Ġminutes": 8004,
      "lecule": 8005,
      "IRE": 8006,
      "Sa": 8007,
      "cryption": 8008,
      "ĠAuthor": 8009,
      "asarray": 8010,
      "Comple": 8011,
      "vanced": 8012,
      "ĠCar": 8013,
      "cation": 8014,
      "Ġreply": 8015,
      "ĠAfri": 8016,
      "ĠUN": 8017,
      "vin": 8018,
      "Ġrendered": 8019,
      "Ġtorch": 8020,
      "Ġpay": 8021,
      "Ġbalance": 8022,
      "Mer": 8023,
      "Ġfrequency": 8024,
      "Ġspect": 8025,
      "Ġactivation": 8026,
      "nested": 8027,
      "Redirect": 8028,
      "RUN": 8029,
      "padding": 8030,
      "Ġbeh": 8031,
      "limiter": 8032,
      "Ġeffective": 8033,
      "Ġtrun": 8034,
      "Ġill": 8035,
      "compiler": 8036,
      "Ġmeaning": 8037,
      "Site": 8038,
      "cleanup": 8039,
      "Ġbits": 8040,
      "migrations": 8041,
      "Lock": 8042,
      "Sparse": 8043,
      "=\"%": 8044,
      "polling": 8045,
      "ĠtearDown": 8046,
      "aching": 8047,
      "Ġplaces": 8048,
      "Ġmigration": 8049,
      "pickle": 8050,
      "Ġpain": 8051,
      "getter": 8052,
      "Batch": 8053,
      "android": 8054,
      "Ġhelper": 8055,
      "Ġpush": 8056,
      "Ġdisabled": 8057,
      "Ġauthentication": 8058,
      "Ġordered": 8059,
      "Failure": 8060,
      "Root": 8061,
      "hot": 8062,
      "ĠATT": 8063,
      "Ġposs": 8064,
      "interfaces": 8065,
      "sci": 8066,
      "UUID": 8067,
      "findall": 8068,
      "Ġfully": 8069,
      "deps": 8070,
      "ĠNotes": 8071,
      "Ġcategories": 8072,
      "rig": 8073,
      "Ġhar": 8074,
      "iterator": 8075,
      "dicator": 8076,
      "Offset": 8077,
      "().__": 8078,
      "listen": 8079,
      "water": 8080,
      "Ġsli": 8081,
      "TYPES": 8082,
      "Ġfinished": 8083,
      "Ġcycle": 8084,
      "COM": 8085,
      "Ġcommunity": 8086,
      "Contains": 8087,
      "Ġlocale": 8088,
      "coordinate": 8089,
      "mongo": 8090,
      "normalize": 8091,
      "Ġgradient": 8092,
      "Ġstub": 8093,
      "slot": 8094,
      "terms": 8095,
      "Shape": 8096,
      "Ġpoin": 8097,
      "Cmd": 8098,
      "covered": 8099,
      "connections": 8100,
      "Ġsense": 8101,
      "levant": 8102,
      "thumb": 8103,
      "jected": 8104,
      "guid": 8105,
      "fac": 8106,
      "reload": 8107,
      "Ġsil": 8108,
      "checks": 8109,
      "mobile": 8110,
      "Ġthird": 8111,
      "istency": 8112,
      "inalg": 8113,
      "vlan": 8114,
      "aggregate": 8115,
      "Ġmanifest": 8116,
      "Ġmaps": 8117,
      "Main": 8118,
      "green": 8119,
      "nail": 8120,
      "gene": 8121,
      "Results": 8122,
      "Scale": 8123,
      "ĠTHIS": 8124,
      "black": 8125,
      "ua": 8126,
      "prod": 8127,
      "LT": 8128,
      "kt": 8129,
      "apic": 8130,
      "Ġunderlying": 8131,
      "hib": 8132,
      "san": 8133,
      "IMAGE": 8134,
      "ris": 8135,
      "noun": 8136,
      "Ġ''.": 8137,
      "Ġhandling": 8138,
      "ToManyField": 8139,
      "nl": 8140,
      "NUM": 8141,
      "deepcopy": 8142,
      "Ġvs": 8143,
      "Ġadjust": 8144,
      "integr": 8145,
      "recon": 8146,
      "ĠVerify": 8147,
      "Ġheat": 8148,
      "Changed": 8149,
      "MBER": 8150,
      "Ġ'/'": 8151,
      "CV": 8152,
      "PA": 8153,
      "wx": 8154,
      "}{": 8155,
      "Ġconfirm": 8156,
      "Ġexplain": 8157,
      "came": 8158,
      "Ġfun": 8159,
      "ĊĉĉĊĉ": 8160,
      "makedirs": 8161,
      ">=": 8162,
      "seg": 8163,
      "arest": 8164,
      "lick": 8165,
      "Ġroles": 8166,
      "Ġprojects": 8167,
      "limits": 8168,
      "Ġmot": 8169,
      "poses": 8170,
      "cells": 8171,
      "ĠSte": 8172,
      "Display": 8173,
      "CF": 8174,
      "ionError": 8175,
      "')],": 8176,
      "ĠWorld": 8177,
      "Ã¡": 8178,
      "ĠVAL": 8179,
      "ĠFL": 8180,
      "METHO": 8181,
      "swap": 8182,
      "jar": 8183,
      "Ġgreen": 8184,
      "Ġhex": 8185,
      "]'": 8186,
      "Ġdummy": 8187,
      "Ġqs": 8188,
      "qs": 8189,
      "Ġpag": 8190,
      "ĠSER": 8191,
      "numeric": 8192,
      "Ġshows": 8193,
      "specially": 8194,
      "Ġsklearn": 8195,
      "Ġnotification": 8196,
      "Ġms": 8197,
      "Ġgene": 8198,
      "Ġpygame": 8199,
      "HOME": 8200,
      "CESS": 8201,
      "gres": 8202,
      "002": 8203,
      "combin": 8204,
      "transl": 8205,
      "theta": 8206,
      "workers": 8207,
      "manage": 8208,
      "inux": 8209,
      "erial": 8210,
      "seen": 8211,
      "rp": 8212,
      "tip": 8213,
      "{},": 8214,
      "ached": 8215,
      "DD": 8216,
      "capt": 8217,
      "Security": 8218,
      "WORK": 8219,
      "stitute": 8220,
      "Conf": 8221,
      "dg": 8222,
      "ora": 8223,
      "mical": 8224,
      "Ġhit": 8225,
      "protected": 8226,
      ")?": 8227,
      "2019": 8228,
      "ĠModule": 8229,
      "[(": 8230,
      "(\"<": 8231,
      "outfile": 8232,
      "qt": 8233,
      "ĠUS": 8234,
      "Ġcountries": 8235,
      "Stats": 8236,
      "Ġsuccessfully": 8237,
      "Ġthro": 8238,
      "ITS": 8239,
      "ä½": 8240,
      "Ġtro": 8241,
      "Debug": 8242,
      "surface": 8243,
      "GS": 8244,
      "ĠShould": 8245,
      "ducer": 8246,
      "submission": 8247,
      "clusive": 8248,
      "ĠLine": 8249,
      "xxxxxxxx": 8250,
      "Topic": 8251,
      "attemp": 8252,
      "bosity": 8253,
      "Ġstuff": 8254,
      "ĠHOLDER": 8255,
      "GROUP": 8256,
      "Ġtrad": 8257,
      "Ġmu": 8258,
      "Ġgateway": 8259,
      "Ġparsing": 8260,
      "Ġvisible": 8261,
      "ĠEnvironment": 8262,
      "transpose": 8263,
      "PROJECT": 8264,
      "nx": 8265,
      "chars": 8266,
      "Ġlogs": 8267,
      "Mapping": 8268,
      "Ġthreads": 8269,
      "coin": 8270,
      "meter": 8271,
      "Ġdense": 8272,
      "=='": 8273,
      "Empty": 8274,
      "ceeded": 8275,
      "Ġdeci": 8276,
      "ĠEurope": 8277,
      "Ġrepository": 8278,
      "Ġwide": 8279,
      ")**": 8280,
      ":,": 8281,
      "nu": 8282,
      "Ġquestions": 8283,
      "but": 8284,
      "har": 8285,
      "ĠATTR": 8286,
      "Jo": 8287,
      "Ġconcer": 8288,
      "Ġsound": 8289,
      "2018": 8290,
      "locity": 8291,
      "Ġraises": 8292,
      "Ġcols": 8293,
      "Ġepochs": 8294,
      "Ġpp": 8295,
      "ĠAUTH": 8296,
      "ĠThen": 8297,
      "Ġcomes": 8298,
      "ypes": 8299,
      "ĠMac": 8300,
      "ĠSequence": 8301,
      "docker": 8302,
      "Ġports": 8303,
      "Ġencoded": 8304,
      "Ġequivalent": 8305,
      "Ġ90": 8306,
      "TIMEOUT": 8307,
      "enate": 8308,
      "cov": 8309,
      "Ġsoft": 8310,
      "trip": 8311,
      "Attributes": 8312,
      "etc": 8313,
      "achine": 8314,
      "Ġbi": 8315,
      "precation": 8316,
      "čĊĠ": 8317,
      "ĠPermission": 8318,
      "ashes": 8319,
      "volumes": 8320,
      "Word": 8321,
      "Ġhyper": 8322,
      "Ġmillion": 8323,
      "Timeout": 8324,
      "Nodes": 8325,
      "Ġpipe": 8326,
      "rstrip": 8327,
      "Ġoverwrite": 8328,
      "journal": 8329,
      "Ġ(_": 8330,
      "AAAA": 8331,
      "Ġderived": 8332,
      "tor": 8333,
      "peak": 8334,
      "irror": 8335,
      "Ġcompleted": 8336,
      "itable": 8337,
      "Ġpanel": 8338,
      "tl": 8339,
      "pied": 8340,
      "kes": 8341,
      "erred": 8342,
      "finished": 8343,
      "Ġsentence": 8344,
      "Ġidea": 8345,
      "Ġreceive": 8346,
      "ERY": 8347,
      "Ġcm": 8348,
      "nor": 8349,
      "Ġ#:": 8350,
      "googleads": 8351,
      "mysql": 8352,
      "Ġvisual": 8353,
      "Ġnb": 8354,
      "('/')": 8355,
      "Assert": 8356,
      "Ġticket": 8357,
      "Ġcame": 8358,
      "oman": 8359,
      "manual": 8360,
      "ĠDelete": 8361,
      "Ġcard": 8362,
      "Ġdry": 8363,
      "listdir": 8364,
      "CLIENT": 8365,
      "itect": 8366,
      "Ġins": 8367,
      "Ġflatten": 8368,
      "ValidationError": 8369,
      "Ġadapt": 8370,
      "Defin": 8371,
      "Ġfactors": 8372,
      "ManyToManyField": 8373,
      "Ġsupplied": 8374,
      "Ġslow": 8375,
      "Ġinvest": 8376,
      "Ġstand": 8377,
      "ĠDefaults": 8378,
      "Ġplants": 8379,
      "mut": 8380,
      "Ġvars": 8381,
      "enticate": 8382,
      "Ġretrieve": 8383,
      "Ġeasy": 8384,
      "ancy": 8385,
      "Ġcharge": 8386,
      "Sample": 8387,
      "Ġfront": 8388,
      "pretty": 8389,
      "Ġsymbols": 8390,
      "kins": 8391,
      "Unless": 8392,
      "ĠPROVID": 8393,
      "assertIsNot": 8394,
      "Grad": 8395,
      "Ġconflict": 8396,
      "Ġreferences": 8397,
      "Ġevaluate": 8398,
      "documents": 8399,
      "Ġiterable": 8400,
      "ĠStatus": 8401,
      "Cap": 8402,
      "Ġë": 8403,
      "tracker": 8404,
      "Ġrealm": 8405,
      "equ": 8406,
      "Ġstock": 8407,
      "rength": 8408,
      "coun": 8409,
      "ĠSign": 8410,
      "ciety": 8411,
      "Dec": 8412,
      "cube": 8413,
      "ĠMulti": 8414,
      "outine": 8415,
      "Ġordering": 8416,
      "********************************": 8417,
      "limate": 8418,
      "First": 8419,
      "Ġespecially": 8420,
      "vr": 8421,
      "rol": 8422,
      "Ġssl": 8423,
      "coeff": 8424,
      "Ġrepresents": 8425,
      "Ġfunctools": 8426,
      "ĠChrist": 8427,
      ":\"": 8428,
      "Ġpsy": 8429,
      "Usage": 8430,
      "decimal": 8431,
      "Ġarchive": 8432,
      "Ġgran": 8433,
      "queryset": 8434,
      "2010": 8435,
      "Ġsubclass": 8436,
      "relu": 8437,
      "Ġnu": 8438,
      "ĠPage": 8439,
      "Ġtensors": 8440,
      "Ġhouse": 8441,
      "Ġcreates": 8442,
      "pie": 8443,
      "ĠOtherwise": 8444,
      "AST": 8445,
      "GIN": 8446,
      "six": 8447,
      "Ġlisten": 8448,
      "nick": 8449,
      "since": 8450,
      "cks": 8451,
      "Ġcoe": 8452,
      "Ġgeneric": 8453,
      "------------------------": 8454,
      "Ġexplo": 8455,
      "StringIO": 8456,
      "bre": 8457,
      "indexes": 8458,
      "Ġprocessed": 8459,
      "Ġassigned": 8460,
      "UNK": 8461,
      "Ġtechnology": 8462,
      "ĠMO": 8463,
      "Ġactivities": 8464,
      "Ġtrying": 8465,
      "Ġ;": 8466,
      "ĠĠĠĠĠĠĠĠĠĠĠĠĠĠĠĠĠĠĠ": 8467,
      "FFFF": 8468,
      "ĠCloud": 8469,
      "Ġdro": 8470,
      "='/": 8471,
      "Ġpieces": 8472,
      "remain": 8473,
      "ĠFIX": 8474,
      "ĠEnsure": 8475,
      "Ġpersonal": 8476,
      "Basic": 8477,
      "Ġ'(": 8478,
      "ĠAir": 8479,
      "Ġsolve": 8480,
      "ĠOSError": 8481,
      "ATT": 8482,
      "lify": 8483,
      "resourceGroupName": 8484,
      "Total": 8485,
      "/(": 8486,
      "topics": 8487,
      "bank": 8488,
      "ilon": 8489,
      "doctype": 8490,
      "ãĢ": 8491,
      "ĠPerson": 8492,
      "ĠVM": 8493,
      "accounts": 8494,
      "Exp": 8495,
      "Ġruntime": 8496,
      "Ġ*=": 8497,
      "bg": 8498,
      "ASK": 8499,
      "tm": 8500,
      "bundle": 8501,
      "Ġther": 8502,
      "Ġboard": 8503,
      "cedu": 8504,
      "Ġchoose": 8505,
      "Ġbra": 8506,
      "Ġmatched": 8507,
      "Remove": 8508,
      "Ġkeywords": 8509,
      "GC": 8510,
      "dashboard": 8511,
      "digits": 8512,
      "Ġsan": 8513,
      "Ġ{}),": 8514,
      "Stop": 8515,
      "dfs": 8516,
      "Ġloader": 8517,
      "Ġcheckpoint": 8518,
      "Ġbusiness": 8519,
      "erc": 8520,
      "Bytes": 8521,
      "chart": 8522,
      "(\".": 8523,
      "Ġbat": 8524,
      "versed": 8525,
      "gradient": 8526,
      "PASSWORD": 8527,
      "eager": 8528,
      "measure": 8529,
      "subscriptions": 8530,
      "Ġserial": 8531,
      "Ġpoll": 8532,
      "}),": 8533,
      "Ġguide": 8534,
      "Ġrev": 8535,
      "LOGGER": 8536,
      "Ġletter": 8537,
      "Environment": 8538,
      "Anal": 8539,
      "Ġwatch": 8540,
      "Enabled": 8541,
      "ĠSession": 8542,
      "Interval": 8543,
      "mber": 8544,
      "Ġ'|": 8545,
      "additional": 8546,
      "Ġready": 8547,
      "Pe": 8548,
      "ufact": 8549,
      "Ġfiltered": 8550,
      "Ġgrowth": 8551,
      "wallet": 8552,
      "ances": 8553,
      "ĠInst": 8554,
      "Hash": 8555,
      "Ġreplic": 8556,
      "Ġpres": 8557,
      "ĠConstant": 8558,
      "ĊĠĠĠĠĠĠĠĠĠĠĠĠĠĠĠĠĠĠĠĠĠĠĠĠĠĠĠĠĠĠĠĠĠĠĠĠĠĠĠĠĠĠĠĠĠĠĠĠĠĠĠĠ": 8559,
      "idence": 8560,
      "Comment": 8561,
      "Ġ=>": 8562,
      "getvalue": 8563,
      "Ġattack": 8564,
      "ĠRo": 8565,
      "Ġcounts": 8566,
      "Ġcompile": 8567,
      "Ġknowledge": 8568,
      "Ġphi": 8569,
      "creator": 8570,
      "ETHER": 8571,
      "Async": 8572,
      "ette": 8573,
      "']):": 8574,
      "ISING": 8575,
      "lexibleForeignKey": 8576,
      "ongs": 8577,
      "rences": 8578,
      "outer": 8579,
      "sessions": 8580,
      "ouse": 8581,
      "Ġkeras": 8582,
      "ĠIter": 8583,
      "Ġlarger": 8584,
      "Cloud": 8585,
      "Ġrestore": 8586,
      "ĠGenerate": 8587,
      "=_(\"": 8588,
      "gc": 8589,
      "NC": 8590,
      "Ġcodes": 8591,
      "MagicMock": 8592,
      "WISE": 8593,
      "Properties": 8594,
      "pipe": 8595,
      "positive": 8596,
      "Ġhashlib": 8597,
      "MESS": 8598,
      "Ġ\"\"\"\\": 8599,
      "ased": 8600,
      "Expression": 8601,
      "Ġscience": 8602,
      "micro": 8603,
      "Ġfat": 8604,
      "Validator": 8605,
      "Ġlocations": 8606,
      "ĠMethod": 8607,
      "ĠJohn": 8608,
      "ĠDAMAGES": 8609,
      "cart": 8610,
      "slots": 8611,
      "uom": 8612,
      "Expected": 8613,
      "heet": 8614,
      "UTE": 8615,
      "ired": 8616,
      "coll": 8617,
      "Ġdiv": 8618,
      "energy": 8619,
      "ORM": 8620,
      "aux": 8621,
      "Spe": 8622,
      "ĠINCLUDING": 8623,
      "Ġinflu": 8624,
      ",\\": 8625,
      "SK": 8626,
      "gmail": 8627,
      "ĠÂ": 8628,
      "Ġgeo": 8629,
      "#------------------------------------------------------------------------": 8630,
      "ball": 8631,
      "rict": 8632,
      "obar": 8633,
      "andidates": 8634,
      "Ġtalk": 8635,
      "Exit": 8636,
      "ÙĦ": 8637,
      "trl": 8638,
      "addWidget": 8639,
      "Fra": 8640,
      "Ġ\"(": 8641,
      "1024": 8642,
      "ĠLoad": 8643,
      "guide": 8644,
      "Ġunless": 8645,
      "ĠPROVIDED": 8646,
      "pedia": 8647,
      "Ġdecorator": 8648,
      "ĠParse": 8649,
      "Ġtile": 8650,
      "Ġ:]": 8651,
      "ĠStud": 8652,
      "onal": 8653,
      "ĠSci": 8654,
      "MIS": 8655,
      "met": 8656,
      "ACTI": 8657,
      "Ġpressure": 8658,
      "pw": 8659,
      "ĠAfter": 8660,
      "lihood": 8661,
      "aby": 8662,
      "Ġcauses": 8663,
      "sis": 8664,
      "ĠBlock": 8665,
      "CREATE": 8666,
      "Missing": 8667,
      "Ġfrequ": 8668,
      "ANY": 8669,
      "Ġinterpol": 8670,
      "}',": 8671,
      "Ġrestri": 8672,
      "')])": 8673,
      "Ġoslo": 8674,
      "FlexibleForeignKey": 8675,
      "reme": 8676,
      "Named": 8677,
      "Ġmechan": 8678,
      "ĠGer": 8679,
      "hest": 8680,
      "Ġfund": 8681,
      "Timestamp": 8682,
      "CONN": 8683,
      "levels": 8684,
      "Ġfocus": 8685,
      "Ġresolve": 8686,
      "'ve": 8687,
      "SIG": 8688,
      "front": 8689,
      "ĠImp": 8690,
      "repeat": 8691,
      "_()": 8692,
      "XR": 8693,
      "ecause": 8694,
      "receive": 8695,
      "IPT": 8696,
      "ĠSHALL": 8697,
      "Ġdead": 8698,
      "URI": 8699,
      "Clean": 8700,
      "NULL": 8701,
      "domains": 8702,
      "Ġpractice": 8703,
      "iration": 8704,
      "maps": 8705,
      "rou": 8706,
      "creation": 8707,
      "Ġthought": 8708,
      "Utils": 8709,
      "234": 8710,
      "onical": 8711,
      "Constraint": 8712,
      "copyright": 8713,
      "ĠEND": 8714,
      "Ġmusic": 8715,
      "developer": 8716,
      "Ġdetail": 8717,
      "Ġiteration": 8718,
      "Ġdependency": 8719,
      "repos": 8720,
      "Ġwild": 8721,
      "([(": 8722,
      "ĠWHETHER": 8723,
      "pread": 8724,
      "predictions": 8725,
      "ĠLIABLE": 8726,
      "decorators": 8727,
      "\")),": 8728,
      "hern": 8729,
      "tmpdir": 8730,
      "ĠEXPRESS": 8731,
      "........": 8732,
      "Ġsuc": 8733,
      "website": 8734,
      "Ġalmost": 8735,
      "Ġowners": 8736,
      "]{": 8737,
      "ĠCONTRACT": 8738,
      "Ġparallel": 8739,
      "ĠARISING": 8740,
      "Ġfive": 8741,
      "runs": 8742,
      "rus": 8743,
      "ìĿ": 8744,
      "Ġ```": 8745,
      "executable": 8746,
      "duces": 8747,
      "Ġlost": 8748,
      "Ġadv": 8749,
      "Constant": 8750,
      "secure": 8751,
      "Non": 8752,
      "elf": 8753,
      "ĠElement": 8754,
      "('#": 8755,
      "mapper": 8756,
      "etails": 8757,
      "foreignkey": 8758,
      "Ġdx": 8759,
      "ATOR": 8760,
      "Created": 8761,
      "onom": 8762,
      "Ġsaf": 8763,
      "ECTION": 8764,
      "ĠArguments": 8765,
      "Ġresulting": 8766,
      "Ġnn": 8767,
      "Ġdy": 8768,
      "edu": 8769,
      "ENABLE": 8770,
      "Ġwebsite": 8771,
      "Ġ00": 8772,
      "['_": 8773,
      "ĠDirect": 8774,
      "hyper": 8775,
      "Ġyoung": 8776,
      "edx": 8777,
      "Ġvariant": 8778,
      "zon": 8779,
      "Ġ{{": 8780,
      "UPPORT": 8781,
      "è¯": 8782,
      "ronic": 8783,
      "}]": 8784,
      "Ġcb": 8785,
      "Ġpub": 8786,
      "unnel": 8787,
      "EVENT": 8788,
      "Ġnative": 8789,
      "avas": 8790,
      "Ġcos": 8791,
      "sembly": 8792,
      "Ġexactly": 8793,
      "cum": 8794,
      "('.')": 8795,
      "Ġquote": 8796,
      "Desc": 8797,
      "ĠPOST": 8798,
      "Bound": 8799,
      "[\"_": 8800,
      "xyz": 8801,
      "desk": 8802,
      "assertAllEqual": 8803,
      "å®": 8804,
      "nost": 8805,
      "MEDI": 8806,
      "Ġba": 8807,
      "Ġcontract": 8808,
      "Ġcookie": 8809,
      "ĊĠĠĠĠĠĠĠĠĠĠĠĠĠĠĠĠĠĠĠĠĠĠĠĠĠĠĠĠĠĠĠĠĠĠĠĠĠĠĠĠĠĠĠĠĠĠĠĠĠĠĠĠĠĠĠ": 8810,
      "Skip": 8811,
      "$$": 8812,
      "Panel": 8813,
      "camp": 8814,
      "contract": 8815,
      "ĠSim": 8816,
      "Ġdegree": 8817,
      "Ġeff": 8818,
      "aussian": 8819,
      "Ġ:,": 8820,
      "compatible": 8821,
      "/.": 8822,
      "exact": 8823,
      "peer": 8824,
      "Ġprincip": 8825,
      "Ġmi": 8826,
      "ĠPi": 8827,
      "Ġwrapped": 8828,
      "Ġbeginning": 8829,
      "ĠOTHERWISE": 8830,
      "=[]": 8831,
      "Ġphys": 8832,
      "ĠCompute": 8833,
      "cidr": 8834,
      "-+": 8835,
      "rename": 8836,
      "Ġoffer": 8837,
      "ĠTag": 8838,
      "swift": 8839,
      "Next": 8840,
      "VIE": 8841,
      "Ġevidence": 8842,
      "Ġconfigure": 8843,
      "Ġleading": 8844,
      "199": 8845,
      "Ġmime": 8846,
      "ĠNE": 8847,
      "ARM": 8848,
      "Ġdocs": 8849,
      "Ġbasis": 8850,
      "validator": 8851,
      "Ġhour": 8852,
      "Ġserializers": 8853,
      "bet": 8854,
      "ĠTORT": 8855,
      "Ġscheme": 8856,
      "Memory": 8857,
      "509": 8858,
      "Ġtrust": 8859,
      "ln": 8860,
      "Right": 8861,
      "Ġachie": 8862,
      "Ġduplicate": 8863,
      "Ġstrong": 8864,
      "Hook": 8865,
      "Save": 8866,
      "Ġbounds": 8867,
      "Ġratio": 8868,
      "aliases": 8869,
      "prog": 8870,
      "Ġtranslation": 8871,
      "Ġblue": 8872,
      "Left": 8873,
      "Body": 8874,
      "Ġformatted": 8875,
      "tensors": 8876,
      "Ġmatter": 8877,
      "Ġhold": 8878,
      "Ġchecking": 8879,
      "modes": 8880,
      "Ġradius": 8881,
      "+=": 8882,
      "UU": 8883,
      "ij": 8884,
      "istr": 8885,
      "king": 8886,
      "Ġmind": 8887,
      "icip": 8888,
      "ughout": 8889,
      "Ġcentury": 8890,
      "sf": 8891,
      "Ġwalk": 8892,
      "dirty": 8893,
      "feat": 8894,
      "Ġrelation": 8895,
      "firmed": 8896,
      "formance": 8897,
      "stdin": 8898,
      "Mask": 8899,
      "stry": 8900,
      "Ġworkflow": 8901,
      "rab": 8902,
      "Ġthus": 8903,
      "ĠPoint": 8904,
      "bridge": 8905,
      "ĠRetri": 8906,
      "trunc": 8907,
      "Enter": 8908,
      "vertical": 8909,
      "Common": 8910,
      "Abstract": 8911,
      "Random": 8912,
      "]=": 8913,
      "traceback": 8914,
      "Ġpull": 8915,
      "Del": 8916,
      "hd": 8917,
      "Ġcriter": 8918,
      "ĠWrite": 8919,
      "Ġextend": 8920,
      "sensitive": 8921,
      "ĠKe": 8922,
      "{}'.": 8923,
      "btn": 8924,
      "Ġretain": 8925,
      "ĠFin": 8926,
      "OO": 8927,
      "Ġblob": 8928,
      "ĠArray": 8929,
      "After": 8930,
      "Ġdidn": 8931,
      "________________": 8932,
      "Ġconfigured": 8933,
      "Ġinitialized": 8934,
      "Ġlanguages": 8935,
      "Particle": 8936,
      "NR": 8937,
      "atial": 8938,
      "heat": 8939,
      "__))": 8940,
      "111": 8941,
      "Ġ31": 8942,
      "Ġviol": 8943,
      "Wait": 8944,
      "ĠFrom": 8945,
      "ĠAuthors": 8946,
      "ength": 8947,
      "assertIsNotNone": 8948,
      "zed": 8949,
      "Ġthemselves": 8950,
      "Ġaff": 8951,
      "Conver": 8952,
      "tablename": 8953,
      "See": 8954,
      "dynamic": 8955,
      "lege": 8956,
      "CAS": 8957,
      "sections": 8958,
      "Ġdevelop": 8959,
      "mtree": 8960,
      "CCESS": 8961,
      "nc": 8962,
      "tcp": 8963,
      "uzz": 8964,
      "hub": 8965,
      "Ġhum": 8966,
      "assertNotIn": 8967,
      "Note": 8968,
      "Ġgives": 8969,
      "filtered": 8970,
      "Ġstrict": 8971,
      "æĪ": 8972,
      "ried": 8973,
      "ĠGET": 8974,
      "Ġapproach": 8975,
      "SERVICE": 8976,
      "ornado": 8977,
      "Ġsouth": 8978,
      "dates": 8979,
      "nes": 8980,
      "about": 8981,
      "Ġurlparse": 8982,
      "=_('": 8983,
      "avascript": 8984,
      "fb": 8985,
      "artifact": 8986,
      "anted": 8987,
      "dictionary": 8988,
      "Ġaccepted": 8989,
      "alo": 8990,
      "Ġ26": 8991,
      "ipment": 8992,
      "aN": 8993,
      "Ġreported": 8994,
      "Ġstudies": 8995,
      "php": 8996,
      "Ġhosts": 8997,
      "ante": 8998,
      "Ġresid": 8999,
      "formats": 9000,
      "Ġperformed": 9001,
      "DOWN": 9002,
      "Ġrequirements": 9003,
      "Endpoint": 9004,
      "ĠTestCase": 9005,
      "]',": 9006,
      "Ġprotect": 9007,
      "Ġmoment": 9008,
      "TERN": 9009,
      "ĠOK": 9010,
      "Ġdefaultdict": 9011,
      "Ġbias": 9012,
      "Ġ128": 9013,
      "Ġsymptoms": 9014,
      "zulip": 9015,
      "Ġfish": 9016,
      "Ġ([": 9017,
      "such": 9018,
      "ĠWITH": 9019,
      "Ġ\"$": 9020,
      "ARD": 9021,
      "gre": 9022,
      "Ġability": 9023,
      "Assign": 9024,
      "dating": 9025,
      "geometry": 9026,
      "openconfig": 9027,
      "('{": 9028,
      "aration": 9029,
      "Ġrelay": 9030,
      "Ġtaking": 9031,
      "ĠRPC": 9032,
      "UTF": 9033,
      "continue": 9034,
      "Items": 9035,
      "pep": 9036,
      "Ġonline": 9037,
      "YY": 9038,
      "prompt": 9039,
      "Ġpdf": 9040,
      "ĠTho": 9041,
      "izard": 9042,
      "portun": 9043,
      "authorized": 9044,
      "uptools": 9045,
      "mgr": 9046,
      "Ġcancer": 9047,
      "windows": 9048,
      "Ġmand": 9049,
      "ĠPack": 9050,
      "phi": 9051,
      "lr": 9052,
      "Ġsometimes": 9053,
      "()).": 9054,
      "xp": 9055,
      "Ġbre": 9056,
      "Ġpositions": 9057,
      "TRAN": 9058,
      "Ġqueries": 9059,
      "10000": 9060,
      "does": 9061,
      "Ġcoordinate": 9062,
      "launch": 9063,
      "dhcp": 9064,
      "íķ": 9065,
      "Ġdatastore": 9066,
      "Ġ\\\\": 9067,
      "Ġsigma": 9068,
      "Ġ\"[": 9069,
      "ippet": 9070,
      "rating": 9071,
      "Ġwor": 9072,
      "Ġrc": 9073,
      "Ġrunner": 9074,
      "Ġservers": 9075,
      "hop": 9076,
      "Fin": 9077,
      "encoded": 9078,
      "METHOD": 9079,
      "ĠAdmin": 9080,
      "oral": 9081,
      "Ġrelig": 9082,
      "WARNING": 9083,
      "nav": 9084,
      "clusters": 9085,
      "Ġbecame": 9086,
      "ENTI": 9087,
      "Ġfluid": 9088,
      "Gen": 9089,
      "Ġ%.": 9090,
      "finish": 9091,
      "Generic": 9092,
      "digit": 9093,
      "Ġdeveloped": 9094,
      "Bind": 9095,
      "Ġ27": 9096,
      "ĠDef": 9097,
      "ĠTemp": 9098,
      "Ġboundary": 9099,
      ":.": 9100,
      "ste": 9101,
      "Ġregistration": 9102,
      "claimer": 9103,
      "Execution": 9104,
      "fft": 9105,
      "mlink": 9106,
      "Has": 9107,
      "Send": 9108,
      "Ø§Ø": 9109,
      "ĠFIXME": 9110,
      "cmp": 9111,
      "Ġpeak": 9112,
      "Ġexecuted": 9113,
      "Ġrefresh": 9114,
      "ĠEl": 9115,
      "ĠWest": 9116,
      "Ġleave": 9117,
      "Ġtemporary": 9118,
      "Ġmanage": 9119,
      "Ġboto": 9120,
      "Ġll": 9121,
      "Ġgoal": 9122,
      "inted": 9123,
      "ĠSince": 9124,
      "Pick": 9125,
      "blog": 9126,
      "ĠConnection": 9127,
      "Migration": 9128,
      "subscribe": 9129,
      "Ġband": 9130,
      "BL": 9131,
      "certificate": 9132,
      "hint": 9133,
      "ĠSouth": 9134,
      "Byte": 9135,
      "encoder": 9136,
      "Ġatt": 9137,
      "Ġ300": 9138,
      "Ġ'':": 9139,
      "quality": 9140,
      "ĠRO": 9141,
      "ĠCount": 9142,
      "Ġpersons": 9143,
      "Ġapps": 9144,
      "ducing": 9145,
      "kg": 9146,
      "Ġspaces": 9147,
      "ArgumentParser": 9148,
      "osite": 9149,
      "Ġcomputer": 9150,
      "djangoproject": 9151,
      "Generate": 9152,
      "frappe": 9153,
      "rices": 9154,
      "construct": 9155,
      "ĠShe": 9156,
      "Ġsequences": 9157,
      "PN": 9158,
      "Ġsin": 9159,
      "Ġnut": 9160,
      "visions": 9161,
      "IA": 9162,
      "rr": 9163,
      "tb": 9164,
      "Ġke": 9165,
      "paper": 9166,
      "Ġexer": 9167,
      "Ġiss": 9168,
      "Unicode": 9169,
      "Full": 9170,
      "atively": 9171,
      "Ġxs": 9172,
      "GTH": 9173,
      "Ġmapper": 9174,
      "ĠHOLDERS": 9175,
      "Ġalt": 9176,
      "NAMES": 9177,
      "fficients": 9178,
      "Ġpm": 9179,
      "Ġindicates": 9180,
      "GG": 9181,
      "Writer": 9182,
      "Ġproduced": 9183,
      "ĠDATA": 9184,
      "ĠBSD": 9185,
      "Ġsubmit": 9186,
      "Ð»": 9187,
      "æķ°": 9188,
      "Ġgain": 9189,
      "Ġinstanti": 9190,
      "Ġ\"(('": 9191,
      "Ġdigits": 9192,
      "ĠEnd": 9193,
      "ĊĊĠĠ": 9194,
      "Ġdates": 9195,
      "orientation": 9196,
      "Ġlimits": 9197,
      "Ġdestroy": 9198,
      "demo": 9199,
      "ĠOption": 9200,
      "Cond": 9201,
      "Ġcomputed": 9202,
      "ĠConvert": 9203,
      "TEXTNS": 9204,
      "Course": 9205,
      "Json": 9206,
      "Ġskills": 9207,
      "accuracy": 9208,
      "ACTION": 9209,
      "URN": 9210,
      "ĊĠĠĠĠĠĠĠĠĠĠĠĠĊĠĠĠĠĠĠĠ": 9211,
      "migrate": 9212,
      "!')": 9213,
      "PD": 9214,
      "Rad": 9215,
      "Ġlogic": 9216,
      "Ġlaunch": 9217,
      "Sec": 9218,
      "pay": 9219,
      "MENTS": 9220,
      "Ġnan": 9221,
      "Ġwarn": 9222,
      "sigma": 9223,
      "inherit": 9224,
      "ĠPort": 9225,
      "ĠInstance": 9226,
      "ĠUnicode": 9227,
      "](": 9228,
      "subs": 9229,
      "Ġmonths": 9230,
      "Ġcopied": 9231,
      "logo": 9232,
      "dtuple": 9233,
      "Ġ256": 9234,
      "ĠView": 9235,
      "Popen": 9236,
      "ĠNULL": 9237,
      "Ġalloc": 9238,
      "COUNT": 9239,
      "Ġemploy": 9240,
      "Ġconsumer": 9241,
      "Ġrng": 9242,
      "Verify": 9243,
      "Ġimported": 9244,
      "munity": 9245,
      "MC": 9246,
      "_):": 9247,
      "Ġever": 9248,
      "ames": 9249,
      "Ġconversion": 9250,
      "([],": 9251,
      "gregation": 9252,
      "IBUTORS": 9253,
      "Ġsg": 9254,
      "shutdown": 9255,
      "ĠGa": 9256,
      "svn": 9257,
      "Flag": 9258,
      "stitution": 9259,
      "',)": 9260,
      "ĠBar": 9261,
      "fee": 9262,
      "Ġchecked": 9263,
      "ĠHere": 9264,
      "ĠOperation": 9265,
      "zy": 9266,
      "chrom": 9267,
      "compress": 9268,
      "transfer": 9269,
      "åŃ": 9270,
      "ĠĊ": 9271,
      "Ġthrow": 9272,
      "Ġlogged": 9273,
      "Ġcompiler": 9274,
      "Ġassignment": 9275,
      "assertNotEqual": 9276,
      "Ġlinked": 9277,
      "lished": 9278,
      "coh": 9279,
      "consumer": 9280,
      "ica": 9281,
      "iodic": 9282,
      "mediately": 9283,
      "gw": 9284,
      "Ġgas": 9285,
      "urllib": 9286,
      "Encoder": 9287,
      "ĠOct": 9288,
      "Fi": 9289,
      "Ġmiddle": 9290,
      "information": 9291,
      "Ġpt": 9292,
      "Ġsun": 9293,
      "iming": 9294,
      "Widgets": 9295,
      "ĠSTATE": 9296,
      "ĠSan": 9297,
      "Ġprograms": 9298,
      "datastore": 9299,
      "DED": 9300,
      "LANG": 9301,
      "Ġfakes": 9302,
      "adow": 9303,
      "chat": 9304,
      "Virtual": 9305,
      "ĠPe": 9306,
      "formatter": 9307,
      "BoundedBig": 9308,
      "wers": 9309,
      "Ã³": 9310,
      "ĠXXX": 9311,
      "enkins": 9312,
      "ĠTuple": 9313,
      "Poller": 9314,
      "HttpRequest": 9315,
      "Ġouter": 9316,
      "curr": 9317,
      "CACHE": 9318,
      "Ġborder": 9319,
      "Ġserialized": 9320,
      "Folder": 9321,
      "]\",": 9322,
      "illed": 9323,
      "vere": 9324,
      "Ġprediction": 9325,
      "SERT": 9326,
      "çĶ¨": 9327,
      "Ġ'=',": 9328,
      "umed": 9329,
      "Ġsubmission": 9330,
      "Ġskin": 9331,
      "otas": 9332,
      "Sets": 9333,
      "deploy": 9334,
      "arc": 9335,
      "ĠId": 9336,
      "Ġcompatibility": 9337,
      "Axis": 9338,
      "!\"": 9339,
      "ilation": 9340,
      "MAC": 9341,
      "Ġwhom": 9342,
      "Ġpg": 9343,
      "Ġperf": 9344,
      "fh": 9345,
      "rgb": 9346,
      "Ġweak": 9347,
      "typ": 9348,
      "SECRE": 9349,
      "Ġopener": 9350,
      "ares": 9351,
      "Ġlst": 9352,
      "EE": 9353,
      "Multiple": 9354,
      "det": 9355,
      "third": 9356,
      "trust": 9357,
      "Ġpatients": 9358,
      "Ġdamage": 9359,
      "PIO": 9360,
      "Ġinc": 9361,
      "ĠĠĠĠĠĠĠĠĠĠĠĠĠĠĠĠĠ": 9362,
      "truth": 9363,
      "benchmark": 9364,
      "argtypes": 9365,
      "Ġphoto": 9366,
      "presentation": 9367,
      "Ġincorrect": 9368,
      "las": 9369,
      "ĠStop": 9370,
      "BadRequest": 9371,
      "ĠCONTRIBUTORS": 9372,
      "Ġthroughout": 9373,
      "Ġtook": 9374,
      "Ġdisclaimer": 9375,
      "Ġvim": 9376,
      "ADD": 9377,
      "uestion": 9378,
      ":\")": 9379,
      "Ġmoney": 9380,
      "ĠBrit": 9381,
      "250": 9382,
      "Ġsyntax": 9383,
      "Ġbroadcast": 9384,
      "bidden": 9385,
      "setText": 9386,
      "ivar": 9387,
      "Ġeffort": 9388,
      "ptime": 9389,
      "jac": 9390,
      "Ġmedic": 9391,
      "ĠDet": 9392,
      "aking": 9393,
      "Ġnetworks": 9394,
      "MESSAGE": 9395,
      "cha": 9396,
      "MODEL": 9397,
      "Msg": 9398,
      "Ġobs": 9399,
      "Ġabstract": 9400,
      "NUMBER": 9401,
      "Ðº": 9402,
      "Ġinvoice": 9403,
      "Ġdemo": 9404,
      "ĠFI": 9405,
      "ĠSets": 9406,
      "AndReturn": 9407,
      "SYS": 9408,
      "()])": 9409,
      "apsed": 9410,
      "joint": 9411,
      "_:": 9412,
      "iguous": 9413,
      "Ġstatistics": 9414,
      "Ġexplicitly": 9415,
      "Rate": 9416,
      "ipt": 9417,
      "unused": 9418,
      "trast": 9419,
      "BUILD": 9420,
      "////////////////": 9421,
      "bulk": 9422,
      "xi": 9423,
      "planation": 9424,
      "duplicate": 9425,
      "Ġsalt": 9426,
      "Ġstarts": 9427,
      "Ġincreasing": 9428,
      "ONG": 9429,
      "ibly": 9430,
      ":],": 9431,
      "mime": 9432,
      "beam": 9433,
      "__(*": 9434,
      "posal": 9435,
      "communic": 9436,
      "groupby": 9437,
      "chronous": 9438,
      "##############################################################################": 9439,
      "Ġtxt": 9440,
      "enc": 9441,
      "Ġcatch": 9442,
      "Login": 9443,
      "assertRaisesRegex": 9444,
      "ĠSelect": 9445,
      "UPDATE": 9446,
      "moving": 9447,
[...]
